FFFE
003C
0009
0007
0010
FFD0
FFFC
FFF8
FFC5
FFD7
FFE0
0004
FFF3
0029
0027
0002
000A
FFF2
FFEB
001E
0042
0024
002B
0038
FFDA
004D
0026
FFFB
002C
002B
0013
FFFD
000C
FFEB
0009
0019
002F
001E
0024
0030
0042
004A
000B
0038
FFDA
0009
000E
002A
0035
001C
001C
0011
000D
0019
003F
0019
0042
002C
FFE3
000F
003B
0032
0005
FFC0
FFAA
001A
0037
0000
FFF9
0009
FFDE
0004
FFF6
FFF1
FFF0
FFF3
0003
0011
FFE9
FFDF
0019
FFD3
004E
FFF6
001B
0007
002B
0018
FFDF
FFB7
FFE4
FFE4
001F
0027
0019
001F
0001
FFCB
FFFA
002D
FFCF
FFF6
FFB3
0012
FFEF
0021
001A
0026
0045
0071
0009
000C
FFFD
FFFB
003A
FFC8
000A
0015
0000
0021
FFAC
FF9A
002B
0001
0000
002A
0056
FFEA
FFFD
0038
FFE8
FFC1
FFFB
FFDA
FFE9
0001
FFEE
FFF8
0022
FFEC
001C
0027
004B
006B
0083
0024
FFDD
0000
FFCE
0011
FFF3
FFF3
FFD2
FFFA
FFB1
FFDE
0016
0040
000E
0035
FF7D
FFC8
FF96
FFB8
000D
0077
00BB
0005
00C2
002D
001B
FFED
0007
FFFF
0008
006D
001A
FFD0
0011
0051
0047
0000
0012
0067
FFDE
FFE9
FF60
0018
0020
0001
000D
001F
0009
002C
FFE2
FFB1
0065
FFC9
FFE7
0002
FF7C
FFDA
FFA7
FF34
FFBF
FF76
FF68
FFBA
FFB5
FFDD
0004
002A
FFD5
FF78
0000
00AF
0075
0044
0099
0020
FFB9
005D
FF90
00A1
003E
002E
0072
0039
0037
0059
000D
002C
0048
FFF1
0019
0037
0041
0033
006D
0015
001C
FF86
FF69
FFA5
FF75
0093
00E5
FFE9
007A
009D
0077
0069
FF96
FFF7
FFC3
0042
003D
FF91
00B1
00BF
0098
FFD6
FFAD
FF7D
FFA9
0012
FFFE
0076
0038
006C
0054
FFFB
0022
0024
0031
0032
FF97
FFCA
FF63
FFE3
000C
0000
FFA8
000E
FF73
001C
FFDC
FFF0
FFEB
0025
FFEE
002B
0016
000E
FFFA
002D
006D
FFF5
0029
0004
FF93
FF91
FF73
FF78
FF7D
0035
FFF1
FFD7
0031
FFD9
FFB3
FFE9
FFE7
FFC4
FFA6
002F
FF9C
FFD7
FFDB
FFAE
FFED
0049
FFF1
000D
001B
0081
001E
003E
FFCC
FF8B
003D
0091
004A
0018
FFFC
0001
001A
002A
FFE3
0022
FF52
000A
FF35
000F
0014
FFFB
0087
FFEF
0046
0018
0009
0011
007C
FFF0
FFAA
FFA0
001F
FFC4
FF89
FFC7
FF51
008B
003D
000A
0086
00AB
FFEA
001A
006F
FFA0
0075
0007
FF7D
0020
0009
0043
0002
FFD1
FFEF
FFDF
FF86
FF80
FF87
FFF8
0020
FFD6
FFD3
FFDE
FFFE
0017
0009
FFD6
FFAE
FFE8
FF90
006E
00CC
002D
002C
001C
0036
0027
0037
000B
FFF7
0015
0003
FF92
FFB7
FF74
0060
0075
0024
0082
004E
0016
FFDE
0015
FFDC
FF97
FF6D
0027
FFFC
0085
00F6
001C
FF17
FF8B
FF07
FF41
FFDC
FFCE
001F
002B
FFD7
FFEE
0006
0034
0097
FFFE
000F
002A
0005
0087
0051
FFD6
FFCE
FFCF
FF47
FF2B
006E
0055
0015
FFF2
004E
FFD4
FFEF
0042
000C
0020
FF84
001B
FF87
FF99
0051
FFF5
FFB5
FF77
0015
FF63
FFE5
0028
0018
FFE4
FFE4
0089
FFCC
FF87
FFA3
FFE5
0000
FFF8
000F
FFE2
0015
0098
005C
002C
004E
0032
0065
006B
0038
006C
0022
FFEF
0077
0008
004F
FFE9
FFEC
FFFB
FFD6
FFD8
FFD8
003D
003F
0018
0028
0031
FFE6
003E
0075
FFA5
FF7B
FF91
FFEC
FFE4
FFF3
FFEC
0001
0074
FFF9
001E
0037
0064
FFD3
FFF6
002C
FFE6
003E
FFC8
0021
FFA2
00C4
FFBE
0032
FFD8
FFC3
0001
FF15
FF76
FF57
FF4F
0013
005E
0044
0058
0083
FF92
FF99
FF8B
0002
FFCB
FFDB
FFE0
001F
FFD8
0043
001B
001A
001E
0011
FFED
0025
FFF8
0004
FFE3
FFAF
FFE6
00A2
0036
FFEC
0037
FF7A
008E
FFAF
FFD3
FF79
FFDD
0011
00A4
FFE9
00FB
0072
FFD4
FF7E
FF69
FF4A
FEA5
FFBA
FFB3
000D
FFF4
FFD9
FFE3
0050
0027
000F
FFEC
FFF5
003B
006F
0064
002E
0091
FF97
FF17
FF28
FFF6
003E
0035
0030
000F
FFE7
FFAA
0050
0005
0028
002A
FFF6
0006
FF77
FFE5
0053
FFA6
FF99
FFEB
FFC9
FF78
FFB1
FFCD
0039
FFD6
FFCC
FFD3
FFC3
FF96
FF3C
FFC3
FFD0
FFDB
FF4C
0000
003D
0085
0092
001E
0089
005E
0037
0024
FFF4
FFE2
FFDA
0052
004C
FFF8
FFCA
001D
FFD8
0001
0034
0000
FFFD
FF79
FFA1
FFEF
FFC2
FFB8
0030
FFFE
FFD6
0053
000A
FFFF
0003
0000
FFD4
0059
FFB5
FFD8
FF82
FF82
FFEE
FFB4
FF7E
FFBB
FFEE
FF31
FFE2
FFDA
FFF9
0025
FFE8
0095
008C
0009
0047
0027
003A
FFF8
FFB6
0033
005E
000E
0042
0008
0059
0064
FFFA
003C
004F
0050
0017
0068
0027
002B
0083
0036
FFF1
FFAE
FF9D
FFDB
FF86
0038
008C
0022
007A
004D
00C0
001B
FFCA
FFDF
000B
0043
0053
0003
0077
007A
00C6
FFFC
FFCF
FFA2
FF52
0034
0022
0096
0071
003F
0077
002C
004B
FFF5
006A
FFEE
FFEA
FFEE
FF79
FFE7
002D
FFF4
FFD2
FFA7
FFD3
FFC0
FFD2
FF7E
002F
0016
0058
FFBC
FFAC
FFBD
0001
FFFC
FFC5
002B
0007
004D
FFF4
FF8F
FFBD
FFC9
FF95
0029
FFE7
FFF8
0006
FFF1
FFAA
FFCD
FFF1
FF8C
FFD1
0012
FFA7
FFC5
FFBE
FFC3
FFE1
FFF9
FFB0
0007
000E
FFDF
007C
0007
FFED
FF81
0002
0033
0038
FFBE
FFA4
0008
FFAA
0061
FFB3
0015
FFDA
0058
0069
FFA5
0081
0077
0047
0011
003B
0061
FFA7
0017
FFFA
FFDA
FF6E
FFA8
0024
FFDE
FF8A
0053
0037
FFB9
0022
FFF3
FFDF
0037
FFFD
0011
0050
FFFE
FFBE
FFCA
0000
000B
FFEA
FFDC
FF5B
FF62
FFC3
FF9B
FFCC
002D
FFE8
FF49
FFC0
FF34
0052
006C
0084
FFC2
FF71
FFAA
FFDA
FFD5
000D
0044
00CB
002E
FFD8
FFD3
00D1
007A
FFA5
0021
0006
FFB7
FF5A
FF77
FF6F
FFAE
006D
007D
FFA5
FFD3
FF22
0021
FFC6
FFA4
FFA3
FF94
0129
00F4
008F
00EE
0047
00B0
FFA4
FF48
FF5C
FFC2
FFDF
0042
FFD7
FFD1
005F
008D
FFC4
0053
FFD1
0010
0031
001F
0008
001C
FFEA
0011
FF50
FF60
FF5C
0062
0009
004F
FFF5
FFE5
0031
FFED
0012
003D
0012
0084
FF35
FF92
0001
FFCC
000F
FFF8
001B
FFE7
FF66
FFCA
FFFA
FFFE
FFFC
0043
FFC6
0061
FFBF
FFB7
FF53
FFD5
0045
000F
000D
0047
FFDE
FF99
005E
0059
0007
FFBC
006F
FFEC
0040
FFEA
0036
FFDE
FFF8
FFF5
FFD9
FFF7
FFEC
0004
FFFB
FFB2
0009
0035
0060
0039
FFE0
FFDE
0047
FFD3
001C
FFE3
0004
FFE1
003E
001A
0005
0008
FFEA
FFEF
007A
FFC5
0011
002E
FFFB
002F
FFD5
FFFB
0084
0032
004F
000C
0001
001A
FFD7
0013
FF83
0010
FFB8
FFFE
FF8C
FF9C
003F
FFA6
FFEE
FFCF
0027
0022
FFE8
FFF3
FFCE
FFA4
FF8A
FFE3
0094
0050
FFF7
FFD0
0017
0053
0050
0062
0023
FFF9
004F
FFED
FF8E
FF97
0015
0001
0013
0017
FFC3
0043
FFE6
FF86
FFF8
FF99
0011
004A
0067
00B5
0044
FF9F
FFB3
FFA7
FF09
FF72
0034
001F
FFE3
FFFB
0029
FFE0
FFDC
0014
0031
0038
FFB4
FFD1
001A
0009
FFCD
FFBF
FFD5
FF94
FFC7
FFFB
005A
003B
0000
FFFE
001C
0025
FFFA
000E
FFDE
0004
000F
FFBE
FFAB
FF65
FF4C
FFF9
FFD8
FFFB
FF82
0001
FFF1
FFE8
FFD4
001D
FFD1
FFE3
FF5C
FFDB
FF54
FFB9
0029
003B
005C
0019
0016
FFB7
0035
0019
000E
FF65
0099
0060
FFDE
FFBD
0059
002A
003E
0066
FFD4
0012
FFF0
007D
003C
FFF2
0087
0046
007D
0003
0033
002D
FFC7
FF9C
FFA0
FFC5
FFD0
FFF8
FFC9
000F
FFFA
FFC5
FFC6
0032
0059
FFF4
0000
0029
0004
FF95
0016
0047
000F
002F
FF87
FFA6
FFBD
FFE1
FF88
FFC0
FF5C
FF63
FFD4
FFC7
FFD8
FFEC
FF9C
FFD2
000E
000C
0026
FFD8
FFB3
FF7E
FFC0
FFEA
0019
0040
00A3
FFCF
001A
000A
008C
006D
0020
0063
FFC5
FFDB
FFD2
FFB8
FF4E
FFBC
FF73
002E
006E
009F
FFBB
FFEE
FFAE
0011
002D
FFFE
FFF0
0091
0066
00A0
002F
FFEB
FF65
FF73
FF65
001D
001E
0060
FFA8
005A
FFD2
000A
FF96
FFF7
0021
0062
0047
FFF8
FFEE
0004
006A
FFCE
FFAC
000B
FF7B
FFE1
0021
0047
FF9F
001A
0027
FFF4
FFE8
004D
FFD2
FFDC
005F
FFDA
0025
FF99
FF71
FFEB
0025
0002
FFC6
006E
FFD8
FFCA
FFE5
0075
0002
0005
FFD5
FF54
FFF2
FFB5
008C
0047
0079
0036
0013
FFD0
FFF4
0042
FFF9
FFAF
0079
003B
0006
FFFA
0059
FFBF
FFEB
FFD6
FFD9
0020
FFE8
003F
0033
0013
005D
0054
004F
003D
FFD8
FFDF
0045
FFED
FFF0
003A
FFDD
0007
FFB5
FFFE
FFA5
FFE6
FFBD
FFE7
FFF2
0062
0063
0061
0029
0033
0028
FFA2
FFEF
0031
0015
FFCD
FFFC
FFDF
FFB2
FFCA
FFD8
FFD8
FFF0
0027
FFEA
004B
0029
FFCC
FFA9
FFF1
0002
FFF8
004A
0025
FFC9
0000
0026
FFBB
0000
FFE7
002F
001E
002D
0038
FFFC
0038
FFC2
0032
FFFE
0025
FFAF
FFEE
FF78
FFFE
0056
0074
001C
FFBE
0018
000E
FFD8
FFD6
FF44
0018
FFEA
0050
0028
FF7F
FFBC
FFE3
0002
FFC8
FFCB
0015
FFCA
0015
FFFB
FFF2
FFED
FFEC
0011
0039
FFE5
FFDE
0024
002B
004F
FFC0
001F
003B
0000
FFDB
0009
000B
0000
FFFE
0037
FFE6
FFFA
FFBF
001A
001C
003D
0014
FFCB
FF89
FFC2
006A
0006
FFDF
0020
005C
0027
0005
0039
0017
0009
FFFF
0031
0039
0008
FFD0
FF7C
FF80
FFA3
FFEF
FFE3
008A
00BC
000E
0061
0038
0034
0004
0055
FF93
FFD2
005F
001F
0005
0003
0056
FFDE
005D
0032
0048
FFC3
FF46
FFB0
FFDF
0088
FFF2
0027
001B
FFC0
006C
001C
0014
0004
FFED
0030
0084
FFB8
FFA3
FF81
FF9B
FFC1
FFBE
FFCF
FFB0
FFDF
FF94
0051
FFAB
FFEE
FFD2
FF7A
007A
00B8
00B2
002C
0057
FF7D
002E
0008
0068
001A
FFF2
0028
FFC6
0019
FFF3
0047
0054
0004
0049
0034
0053
0024
0000
0064
004D
FF88
FFC0
FF89
FFA9
FF2F
004B
0085
0027
007C
0052
009F
FFDC
FFBA
FF8B
FF90
0083
0047
0017
0068
0094
0086
FFD1
FF56
FF94
FF68
FFE0
0054
0030
0011
001B
002B
0010
001D
0018
0005
FFB4
FFC5
FF9A
FFA4
FF9A
FFDF
000B
FFCF
FFDE
FFB8
006A
FFD3
FF98
FFA4
FFEE
003F
0048
0034
FFE1
0032
002C
FFE8
FFDE
FFEC
0000
FFD2
FFA8
FF8F
FFD5
FF69
0010
000F
FFCA
FFD4
FFDC
FFED
FFF7
FFAE
FFC4
FF74
006D
FFB8
001C
FFCC
001C
FFB9
FFB2
FFC2
FFF2
FF96
0052
0023
000C
0018
0045
0019
FF95
FFC7
FFE8
FFDB
0026
FFE1
FFE2
0007
003B
001D
000E
0005
0037
FFE5
FFEE
FFF5
FFF5
000D
FFE2
0029
0029
0031
0029
FFF4
0032
0039
FFD5
FFED
0034
FF3F
FF48
FF9A
FF8E
001E
FF6F
FFE9
FFB1
FF95
FFEE
FFEB
FF8F
0000
FF8A
FFCD
00CF
0031
0037
0062
0074
FFEB
0006
FFE8
006B
FFD5
FFA8
FFD8
FFE5
0034
004C
0056
0059
0013
002B
FFFE
005E
0008
0059
0077
0054
FFFC
FF82
FF6F
FFF5
001A
004E
004D
003E
004A
002F
0018
FFBF
0026
FFBF
FFE3
FFF5
FFD2
0016
0074
0005
FFFC
FFCF
FF82
FFDB
0020
0070
006B
FFEF
0021
0063
004C
0032
0053
0052
FFF7
FF8C
FFCF
FFAD
FFF5
FF99
FFFD
FFC5
0026
FFE7
FFF6
FFF8
FF7F
FFAC
000B
FFFD
FFF5
FFA8
FFC5
FFC8
FFD1
001F
FFC5
FFC9
FFCF
0001
FF30
FF8E
FF84
FF68
FFD2
0039
FFF2
FF90
FFFB
FFF0
0009
FFA5
FFDF
FFB5
FFD4
FFC3
FFEE
002C
FFD3
FFDB
0085
0018
004A
0040
0025
FFC4
FFF7
FFEA
001A
FFFF
0019
001C
000E
000E
001E
FFD0
FFF5
0020
FFEC
001B
000F
0075
0051
005C
000A
001A
0030
002D
005C
0038
0028
0011
003C
0025
FFFB
FFC3
FFDC
FFB6
FFD0
FFE8
000D
0028
0007
FFFF
006E
008D
0058
FFF9
0043
0003
003A
0017
0016
FFC7
002F
FFE7
FFB5
FFFE
FF8D
FFE1
FF72
FF5B
FFC7
FFBE
FFE7
FFB4
FFE2
0003
0016
FFAF
0033
FFF6
FFCA
0005
000F
0031
0007
002B
0060
0066
0002
0021
001A
0056
0002
FFB4
FFA0
FFB5
FFD6
FFC5
004B
0062
0056
005D
0011
FFC7
FFF9
001A
FFDE
FFAA
FFD5
004B
002F
001B
003E
0014
FFF7
FFD1
FFD1
FFAE
FFCD
FFD9
0011
FFF2
FFE6
FFEA
000C
0019
0022
0023
0018
0037
0051
002A
002E
FFEF
FFE5
FFCF
000E
FFBB
0035
004C
FFDC
0019
FFF6
FFF3
0024
FFD2
FFBC
0013
002C
FFD4
FFF2
0007
FFF1
0013
0000
003F
FFE0
FFD5
0036
FFE3
0023
001D
FFF7
0020
0006
FFC6
FF88
001C
FF9C
FFF8
FFAB
FFFD
0002
009F
00B5
0012
0058
0004
0042
000A
0016
FF99
0008
0010
FFEC
001E
0017
FFE4
FFDF
0033
FFF9
FFE5
FFC6
FFB6
0056
0029
0044
0042
0040
003A
002C
FFF4
FFE8
FFBE
000E
005A
0043
0059
FF93
FF90
FF7A
FF39
FFEB
FFF5
FF6D
FFCA
0008
FF8F
FFBA
FF85
FFD3
FFBE
002A
00C5
005E
0057
002C
0022
0024
0053
FF77
00A2
0047
000C
FFE9
0032
0020
000D
0026
0080
004F
001D
FFFF
0088
0047
000A
006A
007C
FF8C
FFDE
FF75
FF84
FF92
0067
005B
001B
0081
0042
0019
FFEE
FFEE
FFCD
FFE8
003E
004E
000A
0086
00C7
00A5
FFB4
FF95
FFB5
FF7C
0023
0013
006C
0008
0077
FFF7
000E
FFE4
0004
0053
FFDA
FF8B
FF70
FF70
0028
FFEB
000B
FFD9
FFB5
FFE7
0027
FFC3
FFAC
0012
FF9E
FFEB
FFD1
0017
FFDD
FFF9
0048
0011
FFCD
FFD4
0015
FF85
FF87
FF9A
FFC9
FF8E
0032
FFD3
0027
0035
FFD2
002A
000C
FFE1
FFB3
FFDD
0045
FFCD
FFCE
FFD8
001D
000D
FFDB
0026
FF9B
FFB5
00A1
002D
FFA3
FF9B
0024
FFFE
FFFD
0000
002D
0031
FFEA
0000
0024
0001
FFEB
FFBF
FFD9
0000
FFCE
003B
FFBF
0036
FFFA
004C
002E
FF6E
FFE4
FFF0
0009
FFDF
0009
FFA5
FFE0
FFFE
0010
0033
0012
002F
FFDA
0022
0001
0035
FFB7
0003
0067
0025
FFE3
002B
0037
00A9
FF83
FF93
FF72
0000
002E
FF6D
FFD4
FF79
FFCC
FFF1
002C
0037
FFF9
0032
FFDF
FFB2
FFEB
004D
FFFA
0053
FFE9
FFCE
FF66
0057
0012
000F
0017
FFDF
0014
001E
FFEA
FF8B
0004
0027
004B
00D9
001F
FF6A
FFA3
FFFF
0033
FFC7
FFF3
FFE6
0005
0035
003B
FFE5
FFB8
FFC8
0019
FFC3
FF99
FFAD
FF95
FFF0
FFED
FFFE
FFA1
0046
0037
0032
000A
FFB5
000C
FFF3
FFDB
003F
FFE8
0022
0068
0008
FF91
0057
007D
FFAD
FFD4
FFE4
0002
FFB3
FFC3
0048
0007
FFEB
0054
FFC3
FF6C
0022
FFFE
0050
FFF8
FFC6
FFE8
FF8F
FF97
003C
0014
003F
003A
FFF8
0034
FFEA
FFB2
0022
006B
004E
0063
0057
FFE8
FFF1
0071
0059
006A
FFC5
0008
0065
000E
FFA6
003E
FF98
003D
0023
0043
FFE3
FFD9
FF83
0062
FFC4
005F
0027
0045
0046
FFE9
0070
0001
FFE9
001B
FFF3
FFCF
FFF4
FF70
001F
FFD5
FF81
FFE4
FF83
0012
0080
002B
00D1
007D
0007
0011
FFF7
000A
002E
000C
FF7B
FF2F
0031
FFAA
FF8B
FFA9
FF6D
FFDE
FF81
FF51
FF8B
FF65
FFEE
FFDD
FFD0
FFE0
000E
0013
FFB7
FFFB
FFEA
FFFE
FF96
007F
0084
003A
FFFA
003E
003A
002C
0015
FFF5
FF90
0020
0024
FFB6
FFE0
FFFB
0033
00A6
FFD1
0070
FFB2
0096
0005
FFEA
FFFD
000F
FF61
006D
0005
0077
00E8
004D
FFC3
FF63
FF4E
FEE3
FFCD
FF89
FF97
FF9E
0008
0016
FFCC
002A
0078
0058
FFFF
FFF3
0016
007B
0057
004E
FFF4
FFF6
FF6F
FFD0
0030
001A
FFD7
FFDA
FFFA
002C
001E
0041
0053
FFD0
003D
003D
FF57
FFF4
002D
002C
0033
FF9E
FFA3
FF63
0026
0015
0070
0050
0024
0065
FF8A
FF94
FFBB
FF62
FF59
FFD1
0006
FFB0
001D
0044
00FC
003E
0020
0014
002D
0016
0016
FFE5
FF9E
0002
FFE3
FFFD
0032
0038
002D
001F
FFDF
000C
FFF3
FEB4
FFF1
FFB8
004A
FFE4
0019
0049
FFF1
004B
0017
FFC0
0040
FFF9
FFDD
0068
FFB7
FF7A
FFFA
FFAA
FFA2
FFF1
0008
FF76
FFA8
FF32
FFE8
0021
005B
000F
FFB5
005C
00A9
00DD
0041
0032
FFB7
0025
FFCF
005B
001A
0008
0017
004A
0053
FFF5
0022
0016
FFEF
0068
0033
0065
0007
FFD6
003A
FFEA
000E
FF8E
FFE6
FFD0
FFAD
0035
006A
0026
005F
004F
00C9
FFF1
FF72
FFEA
FFB7
009E
0096
004A
007D
009E
00BE
FFA0
FF81
FF19
FF5F
FFB5
0007
0027
002C
005C
006D
004F
0002
007F
0000
FFDD
FFB0
FF92
FFAA
FFA7
FFE8
FF91
FFDB
FFD6
FFF7
0033
FFC8
FFC1
FFF6
FFAB
0054
0047
003E
000B
FFD3
FFBF
0064
FFCA
005A
FFE6
FF99
FFD4
FFAC
FF8B
FF67
0015
FFDF
FFAF
FFFA
FFEB
0003
FF86
FFE7
FFA1
FF6C
0009
FF99
004B
FFB1
0033
FFAB
002F
FFBF
0028
FFF8
003E
000A
002C
FFED
0051
0001
0005
0066
0042
FFF5
FFC3
FFF2
000E
FFF9
FFF3
FFD1
0019
FFC6
0005
FFF9
0037
0005
0029
0031
FFF0
0009
0074
000B
001B
FFDD
FFB5
FFDB
FFB4
FFF0
FFAB
FF8B
0010
FFCC
0037
00A1
0042
005A
FFDA
0047
FFE4
0054
FFF8
FFDC
FFD5
FFDA
FFA8
FFF0
FFD1
FFD8
FFD0
FF5F
FF61
FFFE
FFDF
0035
0022
0028
0018
0034
0057
0032
FFF8
0014
FFF3
FFD8
FFDA
007E
003A
0069
0084
FFF8
0034
0000
0063
002D
FFD8
FFF9
FFD5
FFCC
0009
0013
FFFA
0048
0052
005E
0020
FFF6
0013
0034
FFB9
FF9C
FFC3
FFB5
000F
002F
0009
0002
FFC9
FF84
FFAE
FFD4
0015
FFE4
0034
FFAF
005A
FFDF
FFD9
FFF8
003C
FFED
FFD4
0049
0067
0011
0074
FFED
FFCC
FFA4
FFB0
0020
005F
0008
002A
FFF2
FFC5
FFE9
FFD7
FFFF
0041
0064
0060
0000
0018
FFEE
FFB5
0051
003D
FFDE
FFA3
FFFB
0013
FFDC
FFE7
001C
FFCA
FFAC
FFF9
FFEB
FFD7
FF4D
FF40
FFBC
003A
0001
009A
009B
0049
0033
000C
0023
0075
FFF3
FF9D
FF89
FFED
0045
FFCA
FFF6
0028
FFE9
0032
FFF9
0000
0013
FF2D
FFDD
0037
0048
004E
003C
0035
FFD7
003E
003F
FFCF
0008
FFE4
FFD9
003E
FF8A
FF9F
FF3F
FF9C
FF9A
FFC8
FFC5
FFD6
0005
FF58
0003
FFBE
FFBF
FFFC
FFAD
00C0
005C
00F0
009A
004B
FFB1
FFF1
FFA5
0057
0096
FFF3
0029
0012
FFE1
0003
0033
0054
0024
0051
000A
0035
0040
002B
0073
0018
FFBA
FF99
FFB4
FFB5
FF01
0065
006C
0024
0083
0046
00FA
FFAE
FFB8
FFA2
FF90
009F
0036
0048
0049
006C
0060
0014
FF9E
FF61
FF4C
0042
0002
0012
0053
0053
0060
FFE5
0022
004B
0093
FFF5
FFD3
FF90
FF66
FFD7
0053
0028
FFD7
0018
FFDD
0035
FFE5
FFDB
FFC5
0000
FFEE
FFF0
FFFD
FFD2
FFA8
0060
004D
FFE1
0010
FFD6
FFFC
FFCA
FF96
FFEE
FF5A
0046
004E
FFCB
FFC3
FFFC
FF96
FFC9
FFD7
FFDE
FFE9
000B
FFA1
0016
FF61
FFCB
FFB3
FFAB
FF95
FFF8
0000
005A
0070
005D
0062
0035
0068
FFFB
FFE8
FFCB
FFB2
0028
0054
FFAE
0022
0006
FFBD
FFE6
0027
000F
FFEB
FF78
FFA3
004D
0055
002F
00A1
0051
FFCA
0054
004F
FFE5
FFC6
004E
006C
0070
FF93
FF9F
FF31
FFB4
FF86
FF6D
FF98
FFD1
000A
FFBA
0016
FFF7
FFCF
001D
FF9B
0040
006B
0057
0045
0078
0033
0024
FFBE
0064
0057
FFBD
0025
0045
001C
0020
0025
0071
FFE5
0022
0038
005A
FFD8
0012
007E
004D
FFA6
FFCB
FF90
0001
FF52
0039
008A
001C
0050
0037
00E4
007F
0004
FF81
FFB3
0056
00BA
FFE3
003B
006B
006E
FFCD
FFA9
FF85
FF49
0016
0027
0041
000C
0053
006F
FFE2
0002
FFF7
0036
FFBF
001E
FFB5
FF8A
FFD6
0015
0038
0006
FFDE
FFEE
002F
FFC4
FFA9
FF94
FF77
001E
FFE0
FFBF
FFD3
FFEB
FFED
003D
FFD9
0014
FFEA
0011
FFEC
FFC7
FFBE
FF8F
000B
FFF1
001D
FFCD
FFCF
FFE4
FFE4
FFD3
FF95
FF94
007F
000A
0040
FFF9
FFA6
0041
0031
0061
FFDE
002D
000A
FFF2
0040
0001
0006
0077
0013
FFF5
001F
FFD3
FFC2
0034
000E
0004
0000
FFFB
0025
009F
0045
0032
0010
0043
0029
0024
FFF2
FFD2
0063
0000
0023
FFF4
FFB1
FFBC
FFDA
FFAB
FFD6
FFCF
0053
FFE7
0006
0022
003D
0015
FFD0
004B
FFFE
000F
0025
001A
FFB7
0039
FFC5
FF8A
FF6B
FF95
FFEE
FFC0
FFAD
FFB2
FFE6
FFC3
FFA4
FFE5
FFC2
FFE1
FFF6
0010
FFCD
FFDB
000C
FFDF
0042
0056
0013
0033
FFEA
0051
0088
FFC1
FFF1
0006
FFAD
FF78
FFB8
FF7F
003C
0092
0097
FFEB
0024
FF9A
FFD4
0036
FFA8
FF9B
FFE1
0031
0085
0060
0065
000A
0039
0013
FF4D
FF7D
FFA2
FFCF
FFCF
FFF6
FFA8
FFD4
0046
0079
FFE8
005B
001C
0065
005A
0007
000A
0059
0026
FFE5
FF75
000F
FFF7
0057
000D
0009
0027
FFC9
FFD3
0033
FFAC
FFF3
FFF2
0006
FFFA
0033
FFFF
FFAF
002D
FFFE
0049
FF99
FF95
FFFC
0057
002D
002A
0037
FFE0
FF93
FFDE
FFD3
0007
FFA5
FFFC
FFF4
FFA7
FFAF
FFE4
0025
0002
FFF9
FFA2
006E
FFBE
0012
FFD5
0054
FFDB
003C
FFBE
0023
FFE9
002D
0006
0020
0014
006A
FFFB
007F
0014
000E
0047
FF77
FFA9
FFC7
FFBE
003F
FFC0
FFC7
0044
FFB7
0023
0025
0054
005B
FF8C
FF81
0020
FF69
0011
006E
0009
003B
FFF0
0049
0023
006A
0056
0005
FFA1
FFA5
0044
FFFA
FFB3
0030
FF95
FF66
FFE7
FFB1
0052
FFEC
005F
FFB9
FF76
002C
000E
0026
003C
FFDD
0041
FFF1
FFBA
006B
FFC6
0007
001E
0028
0061
FFA4
FFBC
FF6D
FFBC
0034
FFCD
FFF3
FFE8
FF8B
000A
FFC5
FF91
FFF7
0012
00E5
00B8
0045
0053
000E
0098
FFF0
FFD7
FF15
FF99
FFE6
FFD6
001E
FFA7
0046
FFDC
FFE0
FFFD
FFED
0011
0059
0047
FFEE
0073
FFFD
0003
FF29
FFBB
FF64
FFB0
FFBD
002B
FFBF
0052
0055
004D
002D
0018
FFF3
FFC3
FFD0
FFA3
0037
0045
FF84
FFD8
0018
002C
FFD7
FF51
FFF3
0011
005A
FFE7
FFDA
005C
FFC1
FFA7
FF50
FFCB
FF53
FF5D
000E
FFBE
0037
003E
00BD
0029
005B
0024
0029
FFB1
0000
FFCC
FFB7
0068
0021
FFA7
0048
0018
0050
0000
0021
003A
FFAA
FFDC
FFFE
FFBE
002A
FFDF
0007
002F
002F
0035
002D
FFFF
FFD1
0045
FFEE
0076
FFA5
FF37
FF52
FFD0
FFB6
FFCC
FF86
FFDA
FFF5
FF76
001F
FFFD
0019
FFF2
FFE7
0049
00B9
004A
00BB
0058
FF90
FFE9
0052
001F
0069
0007
0011
002A
003C
FFD3
003C
FFFD
FFFE
0048
0031
000A
0046
FFDC
0066
0050
FFF8
FFB6
FF5B
FFAE
FFC8
0056
00C2
0056
0066
0035
00B4
FFB4
FFF6
FFCA
FFBF
006E
00AB
000F
0027
00A4
0068
0007
FF82
FF1B
FF4A
0018
0053
0043
007F
001E
0005
002B
0053
0092
0029
0044
FFBD
FFD5
FF8C
FF8C
001E
001E
FFCC
FFF2
FF7A
005D
0003
FFAF
FFBC
FFEC
FFDB
FFFD
FFCC
FFBF
000C
0075
FFEC
FFEA
FFB7
0007
FF8B
FF88
FF27
FFF5
FF26
0006
FFE0
FFE1
0024
FFB5
FFF3
FF8B
FF9F
FFBF
FFAC
0012
FFA6
FFF1
FFA6
0002
FF83
FFAC
FF9A
FFCE
FFFE
00A9
00DA
004D
0032
0054
0050
0000
FFF0
0001
FFC1
0032
005C
000F
FFE8
000B
FFF3
0049
FFF5
FFC2
0007
FFE2
FFA1
0016
FFF4
FFC6
0086
0009
FFFA
006F
0035
0048
FFE2
0010
0001
FFF6
FFDF
FF7C
FF69
FFC4
FFDB
FF59
FF24
FFC1
FFEC
FFD6
FF7C
FFAF
FFFB
FFC2
001D
00D7
0090
0040
007F
0013
0053
0065
0037
0033
0040
FFDF
0020
0064
0030
004F
003C
003F
0000
0051
0018
0085
005F
FFEF
00CD
0099
FF8C
FF9F
FF74
FFC4
FF7F
0076
00D4
003D
0063
004C
0059
0072
FFD6
FFAF
FFAB
002B
008B
0033
0098
00EF
004C
0005
FF70
FF92
FF60
001B
0023
00A1
007D
0063
002D
0026
000A
004A
0034
000B
0010
FFEC
FF62
FFEC
001D
001C
FFBE
FFA5
FFFF
0018
FF9C
0019
0018
FFF1
007F
FFAF
FFE2
FFAE
005A
0063
0033
002D
FFC3
0071
FF96
FFB3
FF82
FFFA
FF54
FFDC
FFFB
000C
FFC6
FFF1
FFC2
FFA0
FFD7
FFC7
FF83
0032
FFBE
FFF5
FFB5
FFFA
FFED
FFB0
FFCE
FFCD
FFCE
00AA
00AE
FFFA
0044
0078
FFF7
0029
0040
0002
002B
0011
FFE1
FFCB
003D
FFB0
FFB4
0040
FFA8
003C
FFC3
0025
FFFD
001C
FFF6
FFDA
000B
001C
0002
003A
0008
FFFB
FFE2
0056
002B
0013
FF9D
FF7F
FF73
FF70
0007
FF58
FF78
0010
FFC8
FF4E
FFAA
FFB6
FFDA
0000
FF83
00A2
0052
00A9
009A
0037
FFEA
0090
003F
00B5
FFBC
FFBD
FFCA
FFD8
0007
0052
005C
0020
0033
004E
0016
00AC
00C1
002C
00E7
0046
FF9A
FF5D
FF55
FFA7
FFD3
0069
00B4
0036
005D
005B
006F
FFB8
FF7D
FFF3
FFB5
007F
0078
FFC4
0084
00A5
00AD
FFA7
FF69
FF30
FFAC
FFD2
0055
0083
006F
0034
007E
0045
0057
0003
0035
FFC6
FF78
FFCA
FFBB
0020
005D
FFD1
FF5B
000C
FF8E
0047
FFDF
FF41
0035
0007
0066
0061
FF9F
FFB1
0033
0036
005D
FFA9
006C
0001
FF54
FFF1
FF69
FFDD
FF4F
0031
003C
FFA0
002F
FFF8
FF78
FFE0
FF77
FFCA
FFA2
FFB9
FFE0
FFFA
0030
002A
005A
FFEA
FFF0
0015
0019
FFC0
000A
0061
0039
FFB6
000A
FFD5
FFC0
FFD2
FFC4
000D
0026
FFF8
FFEF
0000
0015
FFF2
0021
FFCD
0011
0044
FFCC
003F
FFF9
FFC6
FFEC
005F
FFE6
0018
FFF3
FFD8
FFEC
0010
FFBF
0021
FFBA
001B
FFBE
FFBE
0012
FFFF
001E
FFF3
FFFB
FFC3
0028
0019
000D
FFF5
FFD5
FFD0
FF9C
FFBF
FFB9
FF86
0067
FFC6
0021
0015
005F
FFD2
FFCA
FFD8
0000
FFDA
0032
003E
0068
004D
0014
FF85
FFE7
FF77
005A
FFD2
FFEF
0003
0006
0016
FFE0
002C
FFFD
005A
FFC6
FFFF
FF92
0023
0022
0049
0022
FFA3
FFE0
0009
002A
0028
FFB1
0008
FFE7
0097
0006
FFE3
FFC9
FF93
FFFE
FFCE
FFB4
FFDD
FFB9
0000
FFC5
0022
000A
006D
FFE7
FFFF
003F
0012
0004
FFE4
FFD1
FFBB
FFB5
0050
002B
001E
002C
0058
0037
0011
0034
FFCC
FFF7
0002
FFF7
FFE7
0038
0002
0021
0015
FFD0
002D
0041
001F
0023
0098
0005
0000
000A
0060
FFDA
0009
0012
003B
0024
FFB0
008A
006D
0000
0055
002F
FF71
FFD1
001A
FFC3
FF21
0049
0046
FFC8
0025
0077
FFDE
FFB2
002A
0034
FFB3
000C
0001
FFEC
FFD8
0045
005C
0037
00A8
FFEE
FFCB
0003
0023
004C
FFDE
FF89
FFFD
FFD2
0025
0024
FFEC
FF94
005A
0073
FFEA
FFB8
0072
FFE1
FFB2
0058
FF8E
0024
0019
003B
FF59
0031
FFF9
FF3B
FF85
FFD1
FF7C
FF86
001B
003B
0028
FFC0
FF9B
0029
FF95
0068
000C
FFDB
FF93
FF62
0005
0060
0063
00D2
FFFD
FFAA
FFE0
0058
0036
005C
0055
FF34
FFF0
0046
FF8F
FF5E
FF7E
FFAF
004E
0001
0086
0003
001D
FFFC
0031
0020
FF40
FFCB
00CF
FFE9
011E
00EF
FF8D
FF40
FF4A
000A
FF82
0009
FFFB
FFE5
FFD2
0012
FF78
FFC3
0044
0029
FFCE
FFDB
0017
0035
000C
0052
FFEE
FF6E
FF95
FF64
FFBF
008A
000F
FFE4
0048
003E
002F
FFB4
0016
FFEC
003D
003D
FFFE
FFCB
FF43
FFB1
FFE1
0013
FFB9
FFB3
006D
003A
FFBF
0002
FFB6
FFD9
FFEE
FFB5
002F
FFE4
FF30
0023
FFED
000B
0044
0029
FF4C
0013
FFF5
FFF8
0027
0041
0052
0065
002A
FFF2
FFF8
0042
0050
0014
001C
FFEB
0022
0016
0018
0076
0035
003C
0077
0059
0026
FFCB
0032
FFBD
FFE3
FFAC
FFCA
FFFB
0019
FFD2
FFD2
0071
FF86
0093
FFE1
0057
0097
FFB8
0065
FFDE
FFD2
0096
FFFD
0088
0002
FFD9
000E
FF9D
FFD9
FF74
FF61
FFA3
FFF1
FF63
FFB5
000D
FFD2
0002
FFC6
002E
FF8A
FF7F
FFFA
0052
FF82
FF97
0013
0060
0001
003A
0006
0033
0096
FFCD
0048
001C
FFEF
FFFE
FF7B
FF9F
FF94
00B6
009C
FFB0
0030
0065
FFEA
000F
FF85
0001
FF70
FF93
FFF4
0076
00F6
00FA
000F
FF43
FFA4
FF6A
FEF2
FFFF
FFDE
0027
FF9A
005C
FFF6
0020
FFF5
0054
0047
FFC2
FFCC
003C
0067
000F
0078
001E
0003
FEEB
FFF5
0041
0022
0024
FFD2
0055
0048
FF99
FFC7
FFE7
001D
001E
0005
FF80
FFC1
FF8E
002B
FFEE
FFAD
FFAC
FFB6
FFD4
FFF8
FFF6
0029
001D
0036
FFB6
FF23
FF7A
FFC3
FFF6
0051
FFFA
FFC7
0026
0011
FFF6
002B
0012
0000
001D
FFF5
0050
FFEA
FFD5
FFFF
002D
0028
004C
FFE4
FFCD
002B
0032
0007
0062
002B
002D
FFF8
0074
0029
FFC3
0003
FFBA
FFDA
FFEC
FF76
FFF2
FFB3
FFF8
0035
FFFB
FFFB
001B
FFFB
003D
007F
006B
FFF9
FFD3
000E
0060
0037
0008
0024
0009
FFD8
FF72
FFC3
FFEF
0013
FF6B
FF7A
FF48
FFEF
FFCD
FFF9
0009
FFBE
0034
FFEB
FF7D
0001
FFF0
FF9A
FFA5
004D
0083
0051
0027
FFE8
003B
004A
0037
0000
FFF1
FFBC
FFAC
FFA6
FFC1
FFD3
0063
0082
FFE2
FFC5
FF50
0020
FFB1
FF9B
FF6D
FFEF
00D7
00D5
0056
0093
00BE
0019
FFB5
FF3A
FF9A
FFB6
0024
000C
000C
FFFE
FFD5
FFF5
0014
001B
FFE1
FFF3
FFBC
0006
0034
FFDA
0023
0002
FF3D
FF87
FF84
0022
008E
0046
002E
0008
0044
002D
0041
0026
FFCF
004C
FFF3
FF8B
FFAD
FF7B
FF7D
FFCD
FFE6
FF76
FFA9
FFA0
0037
0038
003B
FFC2
0021
0012
FF63
FF6C
FF77
FFD6
0001
0040
FFD3
0010
0030
FF70
0025
FFA4
FFCD
0039
0079
FFFE
002E
001C
FFD1
000C
003C
FFBF
0058
0025
FFF5
0081
000E
006A
0083
FFCF
00AE
003E
004F
0029
FFD0
001B
FFB0
001E
FFD1
FF93
FFAB
FFD6
000F
FFCF
FF7D
007B
004D
FFFD
0016
0062
FFF9
0015
FFD0
006D
005B
FFB5
0047
001A
0019
FFFD
FFAE
FF6A
FFF1
001D
FF4D
FF46
FF6D
FF8A
FFA2
0027
0001
0000
FF9A
FFBC
0018
FFC6
0021
FFE2
0038
FFF7
0029
FFE8
0059
FFCD
00AA
0044
002C
0008
0002
FF88
FF74
FF7C
FFE7
0024
0094
0047
001E
FFE1
FF6F
FFF5
FFAD
FF84
FF9D
0068
006A
00AD
00BF
FFFC
001C
0040
FFF5
0014
FF7A
FFCE
FFED
FFAD
002D
FFEE
FF86
0032
006B
001B
0046
FF95
0067
0047
0058
FFFF
001F
0000
FF28
FF78
FF8C
002A
000E
0011
0003
FFFB
000A
0043
0023
002C
FFE1
FFB7
FFE4
FFE0
FFDE
003B
0004
FFB4
FFF5
0008
FFF2
FFD0
003F
0015
FFFB
FFE7
0079
0055
FF37
FFC4
FFD9
0033
0024
FFE3
0002
003D
FFDE
0022
005A
FFB5
FFF2
FF3F
0094
FFDC
FFF6
0014
FFE3
0051
006D
0045
FFD6
007F
FF9D
FFC6
0023
001A
001E
0040
0007
FF67
00BC
FFA9
0013
FFBD
FFA9
FFAC
FFE3
FF73
FFBD
0028
FF76
FFC0
0026
0035
0016
FFAF
FFFC
003C
FFE2
0032
0061
FFC5
FFEF
001F
FFE5
001B
005B
FFFA
FFA5
FFAF
FF90
FFFD
001E
0003
FFA6
FF56
FF8A
FF6E
FFDC
FF8E
FFE7
FFA5
FFA0
FFF3
FFFB
FFE4
FFFD
0057
006A
FFF3
FFD6
FFBA
00AE
0014
FFCE
FFC2
0006
0016
0014
FF9A
FEC9
FFB2
00B7
0045
0035
003F
FF69
FFCD
003A
0009
FFC8
FFB9
002F
00BA
00AA
018F
00E3
FFA0
FF62
FF20
FFCA
FF2E
FFDF
FFF5
0015
0038
FFD6
FF90
0065
0057
004C
0092
FFE9
0025
0066
0036
0002
FFD3
0003
FF92
FF59
FFD7
004E
FFD3
FFEF
000F
FFD0
FFD4
0024
0045
FFC2
FFEF
FFC5
FFE1
FF43
FFA9
0072
FFD0
FFE1
FF9C
000A
0037
0055
0048
0036
FFF0
0084
00C8
FF68
FF69
FF36
0023
FFD1
005C
000C
00A1
FFE1
FF93
0058
FF6C
FFEF
0002
009A
000A
FFAE
FFE8
FF98
FFB9
FFD0
0014
0007
0036
0015
FFF8
FF6E
008E
0067
FFA0
007B
0065
00A1
FFD1
003F
0019
0031
FF90
0080
FFEA
FF80
0017
FF7F
FFE4
FFB7
FFD4
FFBF
0044
FF85
0086
002A
006E
FFCE
0138
000F
FFD6
0026
FFBD
000C
001E
FF6F
FFAA
FFEC
0058
FF77
FF6F
FF94
FF0E
FF69
FFD9
001D
0013
FF9F
0025
FFE1
FFEC
0063
FF7E
001A
007A
FFEF
0015
0019
008B
00C4
00A5
FFF9
005A
005B
FF7E
FF15
FF60
FFBA
FF8B
00CC
FFED
FF67
006F
FF9E
FF4C
FF3B
FF3A
FFCE
FFFD
00B6
011F
008D
0070
FFD8
FFD7
FEEC
FFAC
FF5D
002D
0018
0033
003E
FFD2
FFA1
FF68
009C
FFAC
0000
FFA2
005F
FFFF
0037
0045
00B5
0027
FF1F
FF6A
FF7C
FF67
FFEA
0049
FFEB
0058
003B
00A1
FFE8
0040
FF7D
FF86
0065
FFC9
FF5D
0057
FF8E
FF34
FFF2
0046
002D
FF03
FFB0
0007
004F
FFF2
0064
001F
FF84
FFE4
FF41
0003
FF65
FF6B
001E
FFC7
FFF8
002F
00C6
0034
006C
0013
FFD2
001C
002B
FFD6
FFB4
0041
0061
FFC4
0066
0001
0030
0046
FFE9
FFF8
FFAC
FF85
FF96
0003
0044
001C
0058
FFCE
0011
001A
0030
0011
0026
FFCB
0061
FFDB
FF6B
FF41
FF94
FFFA
FFFC
FFAC
FF6F
FF34
FFA4
FF96
FFD0
FFEC
0043
0000
FFE1
0081
003D
0043
00A7
001C
000B
0055
FFEB
0041
0061
FFCA
0034
FFF7
0047
0023
006D
0012
0001
0012
001D
0044
003C
0059
008B
0081
FF90
FF9F
FFB4
FFAC
FFB5
0050
00B4
0001
004E
003F
0046
003C
0032
FFA4
FF85
0051
0009
0023
006C
00DD
0082
FF94
FFAF
FF3F
FF93
FFE5
0029
000A
0049
004D
004E
0026
0031
0057
FFFE
FFBA
0022
FFE0
FFE4
FFE7
FFF6
002C
FFA9
FFAA
FFCD
FFCE
FFCB
001E
FFB3
0000
FFFD
FFAD
FFCD
FF95
000A
FFF7
004C
003B
FFFD
002C
FF81
FF9A
FFC9
FFD9
FF9E
FFCA
0001
FF92
0043
FFD1
FFA8
FFD0
FF7E
0000
FFB9
0066
0008
FFBA
FFE3
FFE0
FFDB
000B
0000
002D
0000
0047
0025
FFA0
FFAE
FFEE
FFB0
FFFA
0036
0054
FFF1
0000
FFB5
FFC8
003F
0040
0041
FFF5
0026
FFE6
0075
FFB4
FFD6
0025
0054
006A
FF6A
FFE9
0021
FFFB
FFD8
FFFB
0018
FFB9
0000
FFBB
002F
0024
0007
FFD7
0016
0030
001F
001E
0045
0061
FFE2
FFF6
0012
FFF8
006E
FFEB
FF88
FFE5
FFD5
FFCD
FFBD
0034
FFB9
FF12
FFAE
FFFB
FFD2
003B
004E
FFE9
FFD1
FFEE
000B
FFD4
FFCE
FFED
0010
FFAA
FFBC
FFF4
0012
001B
FFD2
0004
0000
FFA6
FF22
FF7D
FFC5
FFA8
00FB
00C1
0008
FF6E
FFDF
000B
0001
001D
FFC6
001F
0096
0064
FFDA
0032
FF75
FFA7
0022
001B
FFCC
005C
0011
0046
FFB8
FFED
FFD1
0014
0056
001E
0029
FFDD
FFFA
001C
FFC5
006F
0062
005E
0014
FFF4
FFE5
0060
FFE4
FFC5
FFD5
FFFB
FFDB
FFE3
0038
001E
FFB8
0032
FFB7
FF70
FFD8
002C
0040
FFEC
0026
FFFB
003F
FF5B
001C
0024
FFD2
000D
0053
0068
FFCE
FF63
0000
FFC5
FF66
FF9B
FFED
FFC9
FFF1
0043
0093
000D
0035
0012
002C
0029
FFD8
FFF0
000F
0040
0028
0024
FFFA
0041
FFDA
0050
FFC2
0040
0005
FF4F
FF97
FFCE
004F
0029
FFCD
0078
FFC6
FFFF
FFFA
000F
FFDD
FFFD
006C
FFFA
FFA9
FF79
FF51
FFE0
FF9D
FFFC
FFC4
FF9D
FFA5
FF32
FFE9
FFE2
FFDD
001F
FF94
0019
00CA
00D9
0028
0039
FF50
0016
FFB9
00A4
003C
FFBA
FFC9
FFF5
0022
FFEE
0048
0058
0026
0039
0038
001D
FFFC
0013
0083
000D
0035
FFFB
FFBC
FF90
FF4B
008C
005E
0034
009C
0094
0119
FFB4
FFA0
FFA5
FFBB
007E
0060
FFE6
0083
00B4
0088
0035
FF79
FF41
FF5A
FFAE
0037
0003
FFE0
0047
0054
FFF1
0007
0059
005E
FFD6
FFB0
FF8B
FFCD
FF79
FFEE
FFBC
FFD7
FFE9
FF92
005A
0004
FFB5
FFE0
FFE7
004C
005A
001B
FFF6
FFF2
0009
0019
FFB5
002E
002F
FFD3
FFAE
0004
FF53
FFD7
0041
0017
FFFD
0005
FFC1
0000
0005
0017
FFA4
FF56
0039
FFAD
004E
FF7F
FFE4
FF7A
FFA2
FFC0
003B
FFF7
00A9
00CF
002E
0084
004B
FFD2
FFB4
FFD0
0003
FFB9
0065
0034
FFDC
0025
FFF6
FFED
0031
FFDC
FFDB
FFE7
FFFA
FF92
0008
0012
0006
005E
FFFF
FFD2
FFF5
0027
FFDF
FFFC
0006
FFF2
003B
FF72
FEE4
FF5C
FF9D
FFFA
FF5C
FF69
FFC9
001D
FFB4
FF84
FFBF
FFEC
FFAF
000C
00CD
006F
FFFE
0066
0001
FFFD
0048
0018
0083
0000
FFE6
FFF0
0039
FFE2
004D
0042
003D
001A
0006
FFE2
0032
003F
0064
00A0
0080
FF60
FFD4
FF93
FFE4
FFC2
0075
0086
0046
0046
001B
0039
FFCB
FFC8
0001
FFAB
003B
005B
0002
006F
00CB
0073
FFD6
FFC9
FF66
FF90
0047
0048
0032
006B
0054
007B
001D
0028
0055
0042
FFE7
FFB2
FF9C
FFA4
FFD5
002E
0018
FFD3
FFE3
0002
FFD9
FFC6
FFBC
FFA4
FFD9
0024
FFDD
FF8B
FFFC
002F
0027
FFE6
FFA9
0035
0057
FF91
FF83
FFB2
FFEA
FF5F
0034
FFEA
FFE2
0005
0008
FFEB
FF8B
FFB9
FFD1
FFAD
FFFE
FFFC
FFDC
FFEF
FFFB
FF9F
0009
001E
002E
0029
0087
002E
FFB6
0001
003C
002E
FFE1
0012
0018
FFC1
FFEC
FFC0
002D
FFFD
0003
0090
FFEB
FFE1
0033
0078
FFF7
FF9B
FFE5
0005
009E
FFEB
FFEA
0065
FFEF
004D
FFE9
FFBC
FFE7
FFEB
0014
0024
002D
000F
FFE0
FF4A
FFB5
FFD6
FF8C
0031
0065
FFF7
0004
0008
FFCB
005C
FFBC
FF96
FFD2
FFD1
FFF7
0078
0013
0011
FEC3
FEF8
FFCE
0020
0022
000B
FFDF
0015
0035
0051
FFCA
0049
001D
0012
FFEC
FFFD
FFF7
0061
FFE3
0007
0016
FFEB
FFF5
FF3F
0000
FFB7
FFD9
00D9
FFE5
FFF4
FFD3
FFBE
FFC3
FFDB
FF9F
FFD2
FFF4
00EA
00D6
0015
002D
FFD0
0030
FFF9
FFA1
001A
FF73
FFB8
0006
FFDB
FF70
FFEA
FFD3
00C1
0050
FFFB
000C
002D
0078
FFBA
002E
0055
0003
FFBC
FFA5
FF99
FFBF
FFC0
FF98
FFDB
0018
002E
0024
001E
001A
FF79
FFC8
FFFB
FF62
0055
0055
008B
FF99
FFE3
FFDE
0003
FF32
FFF4
0001
0047
002F
000C
003B
FFE1
FF4F
000C
FFEC
FF5A
FFC2
FFD7
FF9A
0021
009B
007E
FFF7
0089
0053
0026
FFB2
FFF5
FFE6
FFC9
0045
0039
0004
0028
0034
004D
0016
FFC6
FFFF
FFEA
FFE3
FFF3
0025
0042
0036
0006
0042
004C
000E
FFF8
FFF9
0039
0003
0035
FFF7
FF80
FF89
FF75
FFAD
FFD0
FFC6
FF87
FFBC
FFA3
FF41
FFC5
FFD7
FFE8
0016
FFE1
00B1
0086
00AA
0069
0018
FFEC
0018
FFF6
0096
FFF4
FFF1
003A
FFCA
0030
0049
002F
0045
0068
002C
FFE1
007F
FFF6
0045
0073
002D
FF68
FFC4
FF68
FF5A
FFBC
009D
00A0
004A
0089
003A
00AA
FFDC
FFBE
FF6B
FFB2
002B
0018
0004
005A
009D
0078
FF88
0013
FFA9
FFC5
0005
000E
0079
004D
003E
0055
0015
FFF4
0033
004A
FFC1
FFCB
FFB4
FFAF
FF9E
0031
0059
0000
FFE3
FF5E
002D
FFA2
0002
FFA5
FFFF
003A
0015
FFD7
FFD8
0005
000F
FFCC
0005
0006
0011
FFE2
FFA9
FFB2
FFAA
FF28
0061
FFCD
FF96
0018
FFFE
FFCD
FF8E
FFA6
FFE1
FFED
0060
0057
0044
FFD0
FFC6
001D
FFDE
FFB2
001D
FFE3
0040
FFE7
FF9D
FFED
0038
003A
FFF7
0022
FFEC
FFCA
FF8F
0023
0001
FFF4
0012
FFF8
0012
00AD
FFC4
0098
002E
FFDD
FFE5
0062
0064
FF56
FFDE
0026
FFBC
FFF1
0015
FFB6
000D
0012
FFD5
006B
0063
004B
FF94
FF41
0039
FFF5
FFB6
004D
0092
FFBB
FFE3
0072
FFC1
0029
0040
FF8F
FF83
FFF2
0012
FFEB
0021
002A
FF4D
FFA9
FFEB
0032
FFD3
FFC2
FFFD
000E
FF87
FFE3
FFF1
0054
FFEA
FFD9
FFF3
0010
0020
004A
004E
FF8B
0035
FFE5
FFEF
FFA8
FFD1
FFCD
000E
00AA
004C
0002
FF94
FF55
001F
FFDC
FFB4
FFB2
FFF1
00CB
0047
FFFE
FFB4
FFE2
0014
FFD2
FF8B
0050
FFCC
002B
FFC3
FFB3
FFAE
005F
0030
FFFB
0030
002E
0000
002F
0019
FFE2
003D
FFFF
0079
FFB3
000F
FFE3
0075
FFFA
FFA6
FFF3
0018
000B
0010
0008
000F
0022
FFD8
FFA7
FF64
FFC2
FFE8
0068
FFA2
0060
FFF4
FFD7
FF83
0022
0045
000F
0049
006A
0016
FFD9
FFC8
000A
FFAD
FF2E
FF6C
FFEF
FFE7
001D
0039
0059
0040
0052
0024
0016
FF97
FFBF
0005
FFAD
0070
0070
FFC2
0024
002D
001F
000A
FFCB
0036
FFCD
FFB0
FF8A
FFE5
0036
001C
FFE4
0023
0029
001E
0068
FFFB
003E
0019
004E
001D
FF78
FF43
FFBF
FF7A
0018
FF9B
FF70
0000
FFD4
FF91
FFBB
FFE2
FFF2
FFEB
FFC3
00B5
003E
00BA
0060
004C
FFF0
FFE2
0058
008B
FFC2
FFD8
FFE3
FFAC
FFE1
0061
0068
0016
0042
0032
0020
005B
003B
0093
009B
001F
FF71
FFF8
FF91
FF77
FFB3
005B
0084
0023
0070
0066
0092
FF58
FFE4
FFDA
FFEF
001C
0028
000E
0074
0043
008E
FFE2
FFD8
FF5E
FF69
001E
001A
004F
003E
FFF1
0010
0018
001C
0010
FFF2
FFEE
FFE2
FFB9
FFDE
FFC0
FFEA
0012
FFF1
FFA4
FF97
FFFF
FF7D
0005
FFFE
FFC9
0030
FFFE
FF79
FFC0
0027
003C
FFE2
FFB0
0000
0037
FF1F
FF77
FFCF
FF79
FF14
0031
FFA6
FF8F
FFC2
FFD3
FFD9
FF93
FFA3
001E
FFDF
FFFD
0014
0017
0043
0004
002F
FFCC
0020
0077
FFB6
FF82
000A
FFAD
002F
FFEF
002E
FFE2
0061
0036
00A8
FF94
0023
FFB7
0026
003A
FFB3
0057
FF7E
0029
004A
004C
009D
001C
0080
FFC7
0036
FF85
FFD1
0039
0016
FF6F
FFFB
FF75
FFD6
FFDB
003F
FFFC
004F
FFC9
FFC7
0067
FF9C
0045
003D
FFDA
00A6
007B
FFF4
0001
FFCE
0000
FFD4
FF97
FF75
FFE6
0010
000D
FFAD
FF9A
FF89
FFF0
0014
0007
FFE1
FFE3
0036
FF8F
FFFB
FF98
0018
008B
003E
0010
FFDB
005F
00A8
FFE7
008F
0008
001A
FFD3
FFF6
FF13
FF81
FF72
FFEC
00AB
000D
00CF
0003
FFF6
FF8B
FFD0
FFC9
FF85
FFED
0043
00C6
00AA
0114
003C
FF8E
FF51
FF36
FEC3
0039
FFB8
003A
FF92
FFDA
FF8F
FFED
0063
004D
0009
0004
005A
005C
0052
0004
0032
FF88
FF80
FFC4
FF27
0068
0029
0048
000A
0093
FFD9
FF83
0047
FFBC
0015
0033
FFE4
FF74
FFB5
003B
001E
003A
FFC7
FF7E
0026
FFC3
0044
0065
0035
FFF0
0072
FF20
FF97
FF63
FFAD
FFA9
FFA6
FFE2
0000
FFF9
00C6
00BB
0022
0074
0017
0010
FFAC
002B
FFEE
FFF3
0049
0021
0003
005F
003A
FFED
FFFA
0018
0016
FFC1
FFDA
FF8E
002B
0000
0020
004C
0014
001A
FFF4
0026
0061
000C
FFC7
001F
FFD3
FF93
FF24
FF5C
FFA9
FFE3
FF8D
FFA3
FF4A
FFB2
FF59
FFDD
FFA4
FF89
0017
FFD9
00D1
00A8
005D
00A1
0055
FFA5
0028
0029
0056
004B
FFA4
FFE0
0025
0051
FFD1
0015
003A
FFEB
0028
0033
0029
005B
0010
006B
005C
FFC6
FFB2
FF5C
FF66
0005
0094
00B6
0041
00A2
001B
0057
FF98
FFB9
FFC7
FFF9
0073
001B
FFE4
0071
009F
005F
FFB6
FFCB
FF83
FFD9
FFDC
007F
00A3
FFFF
0074
0045
000F
0049
0051
FFE2
FFBE
0023
0014
FFCF
FF95
FFF7
0056
0001
FFE6
FF90
FFCA
FFC5
FF83
FFD4
0045
001C
FFC4
FFFB
FFE5
FFFA
0000
004B
002F
FFA7
FFFF
FF86
FFB5
FF92
FF7D
FF41
004B
FFB8
FFC2
FFDD
0000
0019
0000
FF84
FF8C
FF8F
0030
FFF5
FFC4
0000
000A
000C
003E
0017
000F
0039
008F
0002
0068
0000
FFEE
000A
002B
0035
002B
0014
0020
000E
0051
FFCE
0020
FF3C
001E
FFF7
FFDC
FFE7
005E
002A
000B
0051
FFAF
FFE9
FFEE
0054
FFE3
FFD3
FFA4
FF9A
FFE3
FFD3
000A
FFDA
0001
002B
FFF9
0001
FFFB
000B
FFED
FFFE
0025
000E
0026
002C
FFC2
0046
FFD1
FFBB
FFD2
FFEB
0013
FF69
FF5E
FFD5
FFE0
FFE1
0032
0001
001C
000F
FFC3
001F
FFD1
FFBA
FFFE
FFEA
007D
006E
0019
FFD5
FF86
0043
003F
FFE6
0005
0043
001C
0017
FFDE
FFE2
001D
002B
0072
FFDF
0005
0028
0029
0041
FFB3
FFC9
FFDE
003A
0032
FFFF
00C9
0043
FFF9
FFAD
FF35
FF87
FF01
FFE2
FFA4
000B
002D
FFD4
FFE8
0002
0023
003D
0021
FFC8
000A
0053
0045
FFD4
0002
0012
FF9B
FFFD
FF80
0070
004B
0022
FFBF
FFE7
FFE4
002E
FFE1
0009
0010
FFC7
FFD6
FF8A
FFF7
FFF7
0025
FFB8
FF83
FF73
FF84
002A
FFEB
001E
0033
0013
FFFB
FF7D
FFE1
FF69
FFC9
FF7D
FFB1
FFED
FFDC
FFF8
0043
0060
0038
005B
004B
003A
FFF0
FFEF
FFAC
FFD9
0047
0035
000F
0042
FFDE
0032
0005
FFF5
000A
FFD4
FFA0
FFAF
0007
004F
004D
0008
006D
001F
003B
003A
003A
FFFA
004D
FFFE
FFD3
FFF2
FF86
FF56
FF32
FFD5
FFD6
FFBB
FFA9
0000
FF68
FFE5
FFF2
FFE7
FFB7
FFC3
0039
005B
0097
0054
004F
FFE3
0071
FFA2
00B5
FFDF
FFD7
0055
0013
0026
0015
0036
0030
0039
0050
000E
002E
0026
002C
0068
0053
FFC5
FFC1
FFA0
FFB8
FF7F
008D
0095
0020
006E
0058
00C5
FFF9
FF97
FFE1
FFEB
007D
002E
FFF2
002F
00AC
008C
000C
FFA4
FF71
FF51
0030
0027
0055
0000
006D
0017
000C
000A
004B
003A
FFBC
FFB4
FFBB
FF93
FF9B
0019
0018
FFD6
FFC5
FFC9
FFEA
000A
FFF8
FF94
FFF7
0037
FFF7
0003
FFCF
FFD4
0030
0005
FFF1
FFAE
FFE2
FF8D
FFAE
FF8C
FF58
FF42
FFDF
FFCE
0022
FFC0
FFDC
FFDD
FFB3
FFE4
FFF2
FFBF
0064
FFE2
0042
0013
FFEB
FF8B
FF4A
FFC0
FFB4
0014
0081
00BB
0061
FFF3
004C
0035
FFF3
FFE4
FFCB
FFBB
0058
0010
FF96
0044
FFEC
0031
008A
FFFD
003D
FFC9
FF49
FFA9
0035
0035
001F
000E
0018
000C
005F
0027
FFE8
FFD5
FFFF
0024
0031
FFA2
FFDA
FF7D
FFB0
FFE1
FF95
FF7F
0024
FF9D
FF5F
000F
FFC4
0009
0013
FFC7
00DE
00C1
0074
006B
0026
FFA8
0025
FFFE
009B
0021
FFFF
FFDF
000B
0025
001B
003D
0029
004B
0050
0025
0006
003B
0035
008B
0007
FFAA
FFB8
FF73
FF79
FF3D
0061
007B
002D
0064
006B
00AE
0022
FFB7
FF43
FFE0
006C
0079
0010
005E
0078
0073
FFF0
FF63
FF0D
FF85
FFC8
0058
006E
0036
0056
0050
0021
0049
0046
0047
FFC8
FF9C
FF94
FF9D
FFCF
000F
FFD4
FFD6
FFCB
FF9A
00BB
FFC9
FFAE
FFC4
FFAD
0073
0018
FFE5
FFB4
FFCC
002B
002D
FFFF
0028
0057
FFA4
FFA8
FFAF
FFB9
FF96
FFE5
0035
FFC5
FFDE
FFE4
FFD3
FFC5
FFB2
FFEC
FFC2
FFFC
FFE6
0075
FFCA
FFC5
FF74
FFB6
FFAE
FFF8
FFC3
00B1
00A2
000D
FFF4
004E
FFFE
FFA0
FFA4
FFDA
FFE6
0011
FFD5
FFC1
0019
FFCB
001E
002C
FFCC
FFC8
0001
FF51
0033
0039
0043
0025
0059
0003
0001
0011
003E
004F
FFBD
0040
002C
FFEF
FF47
FF40
FFA0
FF69
0015
FF95
FF67
FFDD
0012
FF6E
FF7F
FFBA
FF84
FFAE
FF9F
00DC
0098
0061
0063
001D
FF8B
FFDE
0061
0051
0010
0027
0002
FFDF
FFFD
FFDC
007E
0064
0050
0043
0017
0048
FFDA
0050
005F
00BF
FFAE
FF9D
FFAB
FFAC
FFDB
005C
003E
005B
0078
0080
FFEC
FF7A
FFF4
FFB8
FFDC
002C
FFA6
003C
0033
004F
0088
FFBE
FFC5
FFC9
FFD4
FFFC
003D
FFF1
0066
002A
FFED
002A
FFFF
006A
0072
FFCE
FFC9
FFB6
FFE9
FFE2
FFE2
FFC4
FFDE
FFE8
000F
FFFB
FFC0
FFA0
001C
FFFF
0038
FFE8
FFA7
FF9C
FFFA
FFF9
0013
001E
0041
000C
FF7E
FFD1
FF8B
FFB5
FFE1
0028
000F
FF95
001D
0009
FF6F
FFD3
FFFE
FFAA
FFBD
FFC5
FFD0
0017
FFBD
FFA1
0016
FFFC
0013
FFAA
FFDE
006B
004E
001C
FFC8
000D
0043
FFF2
FFE1
FFDE
0048
0031
0024
FFE1
FFD9
0019
FFCA
0009
0016
003B
0009
FFE4
FFDE
FFE3
001E
FFD7
000D
0000
FFC6
0009
FFF8
FFCE
0016
0008
001C
FFF5
FFB7
FFCE
FFEA
FFE2
FFE7
FFC5
FFE5
0006
FFE1
001E
FFDD
FFDE
001F
0020
0068
FFAF
FFEF
FFB2
FFFC
0013
FFE0
FFF9
FFAE
FFF3
FFBC
FFEB
000F
0040
002E
FFC9
FFB7
FFBC
FF95
FFA9
FFDD
003A
FFDA
FFAA
FF9A
0000
004A
000A
002A
FFE0
FFF9
FFFE
FFD1
FFCC
FFFE
0000
00AD
007A
FFFB
FFF5
FFC5
0065
0006
FFD0
FFE2
0000
001A
004E
FFEF
002B
0020
001C
FFB0
0001
FFBB
FF8D
FFE8
FFDE
000C
002F
001E
FFF6
FFF6
FFFE
FFE5
FFF8
FFDB
FFF3
FFD6
FFF3
0000
0015
FFBC
FFEB
FF99
0018
0024
FFD7
0001
FFF6
0000
FFFC
FFF2
FFBC
FFEC
0044
001A
FFE2
FFD4
FFEC
0021
FFD6
FFFC
FFEE
FFCE
FFA0
FFDE
FFEC
0004
0021
0017
001F
FFE8
FFED
FFEA
FFFD
FF97
FF56
FFF4
0033
FFDA
0031
00BC
0049
004B
0042
0040
FFB2
0008
FFB2
FFDC
0069
0048
FF86
0068
FFEA
FFB4
FFF9
FFFA
0000
FFD1
FFD6
FFBF
000A
000A
0031
0049
0056
001F
FFF7
0029
004C
FFC0
0023
FFE4
0008
FF65
FF2C
FF38
FF98
FFD4
FFAC
FF82
FF6E
0003
FF78
FFF4
FFE1
FFCF
FFBC
FFB9
003E
0077
007A
00DA
0059
FFF3
0018
0026
007F
0040
FFB5
0022
0013
FFE9
FFD9
0063
0028
001D
0038
0016
0003
003C
0071
003B
0067
FF88
FF8F
FFDF
FFA9
FF6E
008D
006D
0039
0073
00A2
0066
FFFF
FF52
FFB7
FFF7
001A
0030
000C
0048
00AE
0093
001E
FF93
FF6A
FFAF
FFF1
001D
FFF7
004A
0049
000D
000C
000E
007F
003F
FFE7
0009
FFDC
FFE8
FFE8
004C
FFF7
FFD4
FFD2
FFB0
FFEE
FFEC
FFE0
FFE9
FFE8
0015
0017
FFDF
FF8B
0023
002B
002C
0036
FFAC
003C
FF98
FFA1
FFCC
FF9B
FF79
FFCD
001C
FFAF
0034
0001
FFD2
FF95
FFC9
000C
FF7F
001F
0012
FFAF
0009
FFE1
0010
005A
FFF5
FFF4
FFDB
001D
000D
FFA9
FFA1
FFF3
0004
000C
0010
FFED
0007
001A
FFF3
0046
001A
0035
0035
FFF4
003F
002D
004A
002F
0079
001C
0039
001E
FF9B
FFD7
FFC1
FF90
FFBE
001B
000F
FFEC
003B
0030
FFE6
003E
FFB9
FFC7
FFBC
FFB9
003C
FFC4
0013
FFE4
FFF7
FFF4
0077
0019
006C
0026
0007
FFAA
FFC2
0023
FF95
FFE0
0000
0018
0004
003B
0000
FFB3
0042
FFDB
FF8C
0000
0021
FFA3
FFF2
0044
0086
FFA8
FFF3
0003
004B
0047
0018
0059
FFCD
FFC1
FF9F
FFD7
FFE1
0014
0073
FFA0
001C
0025
FFCD
0019
FFB3
FFA4
FFD6
FFDF
008A
0057
FFFB
002F
FFE9
0014
FF7C
FFC9
FF37
FF62
FFB2
FFF1
0027
0032
0028
FFE2
000B
003B
FFC6
FFE8
002D
FFF2
0003
FFD2
0005
001D
FF8E
FFB6
FFE0
FFC9
0015
0027
0023
0000
FFFF
FFD0
FFD8
FFEF
0052
FFEA
FFE1
FF70
FFB1
FFF2
FFE6
FF9E
FFBD
FFAD
FFC2
FF8E
0038
FFDF
0038
0019
FFEC
0034
FFD6
FFAB
FFFE
0010
FF41
0017
FFB0
FF99
0006
0040
0073
FFEC
006F
005E
001A
FF94
FFA6
000D
FFE4
FFF6
0077
FFCF
0032
005D
006F
FFED
0025
FFF0
FFFC
FFA3
0004
FFE0
0067
009A
007A
0027
0000
0000
FFEC
0011
FFD4
0065
0044
0003
FF7C
FF27
FF7D
FF5E
FF89
FF7E
FFD9
FFBE
FFE2
0006
FF6E
FFC1
FFC3
FFCA
FFCF
00AD
005C
004F
00BE
0042
FF6E
0029
FFCC
00D6
005A
FFE0
FFFF
FFD4
0011
FFB3
002B
0046
004B
001C
FFF3
FFD6
FFCB
002F
0073
003F
FFA0
FF6C
FF63
FF39
FFA0
0053
0087
002E
00B8
001A
00A1
001F
FFD3
001C
FF8E
0069
0059
0037
005E
008A
005A
0010
FF74
FFC4
FFDC
FFA0
0085
0067
000F
003F
0026
0003
0006
0067
FFFA
FFE4
FFCF
FFAA
FF7C
FFB8
0049
0059
FFDF
002E
FF6F
FF83
FFDE
0012
FF6A
FFDF
0055
0006
FFF7
FFFF
FFF8
FFFA
005A
FFCA
000D
0014
FFC6
FF9C
FFBF
FF87
FF46
005E
FFD9
FFBA
0015
FFFF
FFC7
FFF0
FFC5
FFC1
FF7C
0000
0083
FF9D
FFC4
FF81
0040
0030
0022
FFED
001B
FFD8
FFCF
007A
FFCA
FFE9
00BB
FFE1
FF8A
0044
0000
0012
0061
0022
FF9E
000D
FFF3
0047
0049
0019
FFF2
0052
0027
FFB9
002A
FFC9
0019
FFCA
000C
FFC9
FFE1
0000
FFA5
0000
0001
FFEB
FFF2
FFF4
FFEF
0029
FFD9
0031
004B
0059
FFF7
FFE6
008C
000C
FFA5
FFE8
FFD0
FFCE
FFC0
FF8B
FF6E
FFAF
FFA7
FFEC
FFFB
FFF6
FFFE
FFDC
FFAB
FF96
0048
FFEA
FFCB
000B
0016
000D
FFC3
009B
0049
0054
FFB8
003C
007A
006A
0001
0008
FFC4
0039
001D
0017
FFD4
FFDA
FFE2
FFE9
0035
0087
FFE5
000C
000E
0043
FFBE
FFCB
FFC8
0021
001A
00BC
0064
FFAD
FFB6
FFA5
FF92
FFB6
FFE7
FFCC
FFFC
FFED
FFDE
FFFD
001C
0034
FFF5
0042
0021
0042
FFF2
000E
005D
FF89
000A
FFAA
0004
FF82
0024
FFFB
FFCF
FFF6
002D
0013
FFF7
003E
0009
FFFE
001D
001D
FF95
FFB9
FFBF
FFF5
000F
0017
0021
0015
0010
0002
FFF0
003A
FFE7
0033
FF9F
FFC4
FF79
FFD6
000B
002E
0017
000E
FFE4
FFCD
001D
0094
0026
001D
0099
FFE5
003C
0061
FFC4
002A
FFE1
FFF7
0035
0024
FFE8
FFFD
FFCC
0000
FFB6
006F
0079
0037
002A
FFE4
0023
0037
FFF7
FFC0
FF9A
FF82
000A
FFB3
000D
001C
FFE1
FFC6
0009
FFBE
008D
0009
0024
0067
000F
FFE7
00A0
001D
FFD0
FFA9
FF82
FFEB
FFF7
0040
FFA9
FFD5
FF7C
FF60
FFB3
FFE2
0039
FFC7
0012
FF9B
0015
FFAE
FFEE
001E
FFE8
FFEE
FFCA
0026
004A
FFF2
0009
0042
FFDC
0049
0039
005B
0031
0001
FFF0
FFF1
FFE4
FFBD
FFCC
FFE2
FFCD
0060
0004
FFFB
0036
0040
0016
FFB4
FFD0
0017
FFEE
00AC
0074
FF93
FF8E
FFA4
FF5B
FF44
FFBC
FFED
0015
FFF9
001B
000C
FFD8
0015
FF8C
002F
0016
FFE7
0031
002E
FFF0
FFCE
FFBB
0007
FFD7
FFC3
0065
0021
FFF2
FFE1
FFE3
FF9D
FFEB
0040
0037
0054
004E
0023
FFA4
FFAE
FFD8
FFF8
0033
FFE7
FFED
FFBC
0013
0024
FFDC
001D
003A
FFD6
FFED
0011
FF92
FFD4
FFB9
FF6A
FF9A
FFFB
FFDB
00A2
0082
001A
0044
002E
0001
0004
FFD9
FFA0
FFB3
005A
003C
FFD2
002B
FFF3
0031
000E
FFFB
0015
FFF1
FF9F
0006
FFD4
FFDC
FFC4
FFFA
001B
0025
0034
0011
001D
0053
FFDC
0030
FFF2
FF48
FF93
FF5D
FFC5
000B
FF9B
FF87
000A
FFC3
FF5D
FFA9
FFBC
FFC4
FFF9
FF85
00AC
0030
004D
0081
0010
FFD0
0025
FFEF
0059
FFF2
FFD7
FFC4
FFE1
003F
000B
0063
005F
0017
0022
0035
0049
0057
0043
00CB
00B0
FFC6
FF9D
FF6F
FFD6
FFC9
0062
00B4
0004
0052
0063
0028
FF99
FF96
FFA4
0016
007A
0049
003E
003C
007A
00B3
0007
FF90
FF77
FF85
FFFA
0003
003F
004D
FFFE
FFF6
FFFC
FFFF
0069
0047
FFD8
FFC7
FFB4
FFC0
000C
000C
FFAD
FFF6
FFB2
FFBD
0000
FFA3
0009
0028
001A
004E
FFE4
FFC9
FFB9
0008
002A
0021
FFAB
FFFC
0039
FF3A
FF96
FF7A
FFFF
FFB2
FFFA
FFCE
FFC4
FFFA
0001
FFA8
0006
FF8C
FFEC
FFF4
0025
FFCE
0022
FFAE
FFC3
FFBC
FFC2
001A
FF90
002D
0005
FFB1
FFCD
005D
FFD7
FFD2
0038
003B
FFCE
0019
0025
006D
FFDB
005C
FFE8
FFF3
FF9B
0073
FF8E
007A
FFE9
0055
0046
FFE4
006B
FFA5
FFE9
FFD6
FFE2
0028
0011
FFCD
FFD5
FFA0
FFE3
FFE7
000C
001B
FF9D
FF38
001B
001E
FFE1
004F
00A0
FFF5
FFFE
0024
FFDD
002F
0037
FFDF
FFBF
FFFA
0060
000D
FFD9
0027
FFCA
FF4F
0009
FFFA
FFA0
FFC4
0057
FFB1
0001
006B
FFEC
0059
FFBC
0094
FFF7
FFA7
FFD1
0051
0020
FFFA
0034
FFA1
0047
FFAD
FFEF
FF84
000C
0078
FFC8
FFF1
FFAD
FFDD
FFE7
FF40
FFBD
FFCF
FFEA
0133
0022
0068
0041
0000
0024
FFAE
FFA0
FEFD
FFEA
FF8E
0009
FFCD
FFC4
FFD1
0053
003C
002B
FFF7
0054
0030
0065
0032
000F
004D
FFE6
FF49
FFAF
FFF3
0037
FFF9
0040
FFCF
000C
006A
FFD6
001C
001C
FFE9
0024
001D
000D
001D
FFD3
FFBE
FFCF
FFC7
FFED
FFD0
002F
FFCD
004D
FFEC
0041
FFD6
0006
FF43
FFA8
FFEB
FFCE
0085
0011
FFFB
0045
008A
000B
FFDA
002C
0016
0014
003E
004B
0062
FFAF
0033
0001
0025
0034
000C
FFFD
FFC1
0099
FFDB
000A
00BF
0019
0095
002D
0086
0023
FFC2
FFDE
0054
FFDF
000D
FF99
FFB6
FFCF
FFCB
0001
FFF8
002A
0034
FFFB
0025
0088
0004
FFA1
0084
0049
005F
0008
000E
FFDC
0071
FF9D
FF43
FF4D
FFBB
FFD1
FF86
FF34
FFD2
FF81
FFAA
0017
FFB7
FFA6
0016
0028
0006
FFFB
FFDC
FFCB
FFEC
002D
007C
0055
0064
FFC4
0043
0053
FF97
000F
0019
FF4C
FF8C
FFB3
FF9C
FFDF
00BF
009D
000A
FFB5
FF73
FF9A
FF64
FFEB
FF72
FFB2
005D
00AC
003A
0037
000D
FFAD
FF84
0016
FF8A
FFC1
FFD5
FFFC
002E
FF8C
FFD4
0069
0001
003E
FFCF
FFAA
005F
0029
003C
0072
001E
FFE2
FFB4
FF99
FF8E
FFFF
0001
0016
FFD7
0028
FFDA
0010
0034
FFE0
FFF4
FFCF
FF92
0001
007A
002D
0032
FFA4
FFD4
FFD4
0009
FFCC
0012
0057
FFF8
FFD3
006B
0024
FF8D
FFCE
FFCB
004B
FFE7
0059
0001
FFAE
FFE9
0000
FFD2
FFBE
FFDC
FFAB
FFEA
FFD2
FFDE
0039
0047
FFF7
0010
FFE0
001D
FFDD
FFE2
FFFE
0033
0005
0035
FF88
005E
FFED
0027
0000
FF8E
FFBD
FFF7
0025
0002
FFEA
0009
0001
FFB7
FFCD
001F
0061
FFDD
FFFF
0019
0007
0028
FFAD
0053
0017
0031
FFDB
0038
0000
006A
FFB1
FF8B
FF86
FFD7
FFF6
FFE0
FF77
FFC2
FF9F
FFBC
FFEA
0014
0017
0015
0033
FFB4
FFF1
FFDC
FFC5
0026
003E
005B
FFFA
FFDE
0030
FFE0
0023
FFD6
000A
FFF7
FFDF
FF8B
FF93
FFDC
FFFB
0098
006B
FFA7
FFC4
FFDA
002D
0001
FFFD
FFF3
FFF3
0082
001A
FFF8
FFD8
FFB5
0005
FFA7
FFDD
FFBB
FFBF
FFF2
FFCD
0022
0040
FFF4
0011
FFF8
001C
0008
FFE0
002A
0034
FFE6
0025
FFDD
00BF
FFE1
0024
0048
0029
FFCD
FFE8
0024
001F
0005
FFF1
FFFE
0020
0031
003D
FFE1
FFF3
FFF5
0024
0054
0017
FFD8
FFD6
FFC7
FFEF
002F
000F
000D
000B
0012
002D
FFDA
FFA1
0031
006D
FFD5
FFD8
FFCD
0055
FFA6
FFF5
0032
0034
FFDD
FF86
0078
006C
0031
0028
FFF8
FFE1
006F
FFE7
FFEE
005B
FF87
0049
FFEA
0003
0015
0003
000F
FFD4
0063
0059
004A
FF85
0003
FFA9
FF8F
FFE6
FF8C
FFCF
FF84
FFB7
FF4A
0094
006D
0012
0054
006A
FFF1
FFA7
003D
0019
0091
0055
FF73
FF5D
001E
0023
0025
0013
FFEF
000F
FF47
FF77
FF45
0019
002A
FFE1
0001
FFD7
0046
FFFB
0015
FF6D
0037
FF7F
0008
0097
00AA
003E
0008
FFD6
0035
005B
FFFA
006E
FFFC
001F
0013
FF6E
FF9E
FFCA
FFF4
0064
FFCF
005F
0023
0047
0027
FF3E
FFA6
FFA0
FF92
003B
00AA
0097
00F0
0022
FFEE
FF50
FF6D
FEFB
0001
FFEA
0027
FFF9
0058
FFF4
FFDF
000B
0091
0000
FFC0
FFE2
0042
001C
0038
009C
FF9D
FFCC
FF68
FFFD
004D
005F
FFC1
FFD3
003A
FFF1
FFAE
0061
0037
FFF7
FFD1
FFC8
FFC9
FFAE
FFAA
0025
0017
FFBC
FFDB
FFDA
000B
002C
FFEB
002C
003C
006B
FF85
000D
FF57
FF95
FFC5
FFA9
FFC4
FFE8
002E
0048
FF74
0024
0019
0036
0080
006E
002C
0073
FFE9
0032
FFA1
0054
FFDA
0005
0023
00B9
FFF4
FFFB
0094
FFBE
0032
FFDD
FFFC
0093
FFFB
000B
0034
0019
001C
0003
FFE8
FF87
FF7D
0036
FFA9
005E
FFFD
006E
FFA1
0063
004D
FF78
008A
0043
FFC1
FFBF
FFDF
FFF1
0077
FF7C
FFA3
FF9F
FF7D
FFFA
FFA2
FF7C
001F
FF90
FF87
FFF5
FFEB
FFF5
0069
005E
0045
0028
FFEE
002D
003C
0033
0022
FF48
00C6
FFCE
00AC
0081
FF89
FFF5
0077
FF95
FF8D
0001
FFE8
FFC7
00DC
0039
FF96
FFBF
FFB4
000E
FF43
FFCE
FFC7
FFE9
000A
009C
0088
0031
007C
FFC2
FF9A
FFD4
FF69
FFE4
FFEB
FFD5
FFE7
FFC9
FFC5
00AC
FFB1
006B
0021
FFB0
0004
0008
FFCE
0079
003B
0079
FFD8
FFC1
FF64
FFD8
0035
005E
FFD9
0002
0069
0028
FFCA
003D
FFA0
FFB8
000B
FFEF
001D
FFF1
0033
FFA9
FFDE
FFF1
000E
FF39
0011
FFCE
FF9E
0069
0007
0045
FF98
FF6A
0022
0025
006C
0002
005D
FFE4
0048
FFF4
FFD9
FFDC
0038
FFEB
0006
003D
FFFC
FFF3
FFB8
FFF2
FFC5
FFDD
FFE8
FFEE
001A
0024
001B
FFFD
0038
FFD1
0013
0022
FFFD
FF8B
001A
0018
FFF6
FFED
FFCB
FFD5
FFE2
FFDE
FFDF
FFF5
0023
0018
000B
000E
005F
0032
FFD8
0035
FFF3
0008
004D
FFF2
004B
FF9B
002A
FF88
FFEB
FFF7
FFF1
FFC9
FFE4
FFCB
0010
FFF6
000D
0019
002B
0001
FFDB
0018
0021
002C
FFEF
003B
0026
FFCB
FFCC
FFF6
FFD4
003F
0023
004C
FFEA
001D
FFC4
0028
0056
0022
FFC8
0009
FFBD
000A
0024
FFFB
FFB8
000D
FFE7
000B
FFE9
000B
FFA1
FFD6
FFC0
0026
FF88
FFE7
FFE6
0000
000C
FFF1
001F
FFDF
FFC8
0041
0005
006F
FFE7
FFF4
FFFD
00A4
005A
0000
002A
FFD3
FFF6
002F
001E
006D
0036
000B
FFE3
000F
FFA5
FFF2
FFF9
FFE3
FFE9
0013
0019
0020
000B
002D
FFB1
000D
0018
0031
0011
FFF7
0042
0045
FFFA
0059
002D
0028
0053
0008
0012
0010
0070
002E
FF97
FF65
FFD9
0011
FFDE
005E
0077
001F
0020
003D
FFEB
FFDD
FF95
001B
FFE6
005C
0037
FFA0
0003
0011
FFE8
003F
FFE5
0026
FFDC
FF87
FFF4
FFF5
005A
0038
0032
FFE6
FFFE
FFF5
0000
FFDB
FFD2
0057
001C
0015
FF82
FF73
FF88
FFDD
FFA8
FF78
FF84
FFC3
FFE7
FFB9
FFED
0022
FF93
000E
FF89
002E
005F
0052
0079
0059
0040
0051
FFBA
0022
0043
FFCA
006B
0028
0055
0052
0091
0054
0010
0027
0005
005D
0012
0025
0096
0061
FFA6
FFE1
FFBC
FFF2
FF64
0090
007E
002A
007C
004A
00BF
0000
FF8A
FFF6
FFE2
0039
00AF
0037
0050
009B
0075
FFFF
FFA5
FF72
FF5D
0036
003F
0030
005F
0012
004D
0001
0021
0053
0051
FFD4
FFF0
FF89
FFCD
0033
FFD0
FF93
FFEF
FFBF
FFC8
0053
FFC1
0004
FFBA
FFEC
0016
0005
FFBD
FFC7
0004
FFE9
0045
FFCD
0051
000D
FF8D
FF9B
FF79
FFCD
FFA8
0012
0022
FFE9
0013
0029
FFF2
FFE1
FF9C
FFD7
FFC1
0035
FFF2
FFD9
0001
0007
FFCA
FF5E
FF7B
FFAA
FFAA
0035
0069
0005
0036
000B
002B
0014
0019
FFF6
FFE7
0045
0027
FFB3
0004
0038
FFB6
0020
0038
001C
FFAE
FF73
FFC0
FFCA
0042
0069
0045
003E
0005
0034
0009
0050
FFDB
002D
FFEF
FFE5
FF76
FF94
FF94
FF88
FFA5
FFB9
FFA6
0005
FFC0
FFA5
000F
FFC8
FFEA
0024
FF7D
0026
00BE
00D6
00A2
007D
0016
FFEC
FFE7
003A
0074
FFC1
FFDF
000A
FFD9
0019
0064
0067
FFF3
FFFC
0040
005C
0035
0079
008E
003D
FFA7
FF94
FF62
FFF0
FF2F
007A
00B4
001B
006E
0062
0086
0004
FFC6
FF72
FFAC
0037
006A
0018
00A7
0030
0089
002E
FF6E
FF98
FF7E
FFD2
0025
FFD3
0014
0066
0033
001C
001D
0013
0085
FF91
FFC2
FFA1
FF95
FFDB
FFFE
000B
FFD1
0029
FFA8
0067
FFA9
FFB9
FFE0
FF92
FFFD
005B
FFF2
000D
FFFB
FFE8
004B
0021
FFE6
002A
FFB1
FFCB
FFC6
FF7E
FF5C
0016
FFF5
FFC5
001E
0018
FFC7
FFCD
0016
FFD4
FF93
0099
0014
003C
FFC3
FFD7
0012
FFEF
0004
0068
0033
0019
FFC1
FFA5
FFB5
0004
0003
FFC7
FFF4
FFE7
006C
0005
FFB7
000F
000E
0034
FFD6
00A8
003A
0037
009F
0027
0064
FFDD
0041
FFFA
FF37
0030
0002
FFE3
0079
FFE9
FFC1
FFCD
0003
FFD0
0052
008A
FFED
0046
FFE3
005D
0076
FF99
00A5
00A9
0003
FFE4
004E
FFF1
0014
FFDE
FF83
FF98
FFAA
FFDB
0020
FFA6
FFFC
FF75
FF41
FFEA
FFA7
FFB8
FFD5
0009
0026
FFEE
0024
FFD6
0000
FF7F
FFFE
FFDC
FFE5
00B7
0009
0089
FFA9
004D
003B
FFBA
FF75
FF9C
FF92
FFCF
0045
0054
008B
FFD0
0018
FFB5
FFA0
FFF7
FFF6
005E
0002
0030
00A8
0029
005F
FFEB
FFFA
FFBE
FFEE
0034
000D
0019
FFFA
0027
0008
0063
FFDA
FFE1
003E
0071
0021
0013
FFD0
003F
0074
000F
001D
FFEA
FF82
FFE3
FFEB
0011
FFEF
FFEB
0086
FFFB
FFDA
FFF5
FFAE
FFC8
0066
000A
FFBA
FF91
FFD5
FF84
FFFB
0048
FFEF
FF91
0004
0074
FFCB
0015
006B
0026
FFFC
FF5A
FF86
FF7B
000E
0019
FFB5
000D
0032
00E7
005C
0027
0013
0065
0041
FF9F
001A
FFA9
FFF2
0077
FFEF
001A
0028
0012
FFFE
001F
0005
0006
FFB7
FF6F
FFC0
FFFF
0021
001E
006B
0014
FFE5
003B
FFF9
004A
001F
000F
0029
FFF7
FF85
FF5D
FF54
FFEC
FFF4
FFEF
FFA0
FF8D
FFA4
FF8D
FFCD
FFB0
FFB3
FFD1
FFD7
0046
008E
0069
002F
004E
0009
002D
FFE6
006E
FFE7
0001
FFD2
005D
0056
FFCC
000A
006D
FFEB
004F
002B
0057
001C
FFC4
00A5
007E
FFF3
FFCB
FF51
FFA5
FFCF
00A1
0059
000E
009A
0036
00CC
FFC2
FFD4
FFB4
FFB7
0088
0060
0012
004C
0083
008D
FF89
FFC4
FFB8
FFA6
FFC0
005B
006C
0000
002F
0060
FFF1
002D
002F
0033
FFC8
0022
FFB2
FF8E
FFC4
0010
0009
FFB7
FFF8
FF97
FFC4
0024
FF9D
001B
000B
0038
FFD2
0023
FFFE
FFD1
FFDD
0009
0026
002D
FFF8
FF9F
FFB4
FF56
FFBC
FF8A
FFFF
0042
FFA9
FFC0
FFDA
FFB4
0011
FF96
FF75
FFCD
FFDE
001C
001E
0033
FFD7
FF5A
FF98
FFA3
FFCD
FFD6
00B9
009A
0070
FFF6
0038
FFD0
0021
FFBA
FFBF
FFD3
FFF9
002B
FFD7
0053
0033
FFB1
0022
FFF7
000C
FFCE
FF65
FFAA
FFF5
003B
0014
006D
FFF9
0038
0006
FFFD
002E
FFCB
0058
0019
0038
FFCA
FF7E
FF95
FFA4
FFE9
FFF9
FFAE
FFB0
FF8E
FF66
FFF9
0024
0018
FFB0
FFD2
0063
00BC
008B
0028
0060
FFF8
0024
FFE0
0068
0027
FFEB
FFE5
FFB5
0045
0042
008E
0037
FFFF
0012
FFFA
0071
002A
0084
008A
0069
FFC1
FFEB
FF5D
FFCE
FFC3
0044
0054
001B
0066
0064
001E
FFCE
FFDB
FFBE
FF91
003B
0068
0065
0059
00AB
0084
FFF5
FF4D
FF2B
FF7A
FFF2
0029
000B
0034
0018
FFF1
FFE8
0027
0054
0019
FFE7
FFC7
FF88
FFF8
FFDE
002D
001E
0007
FFFE
FFCC
0059
FFCA
FFE0
FFE6
FFE5
005C
0049
FF8D
FFB1
0024
003D
0031
FFF9
FFEF
0027
FF4D
FFAD
FFDE
FFAB
FF9E
0012
FFC4
FF9D
0042
FFFC
FFA1
FF8A
0001
FFD5
FF8F
0066
FFCB
0038
FFB9
0016
FFE7
FFA2
FFC4
FFB0
0042
00C8
00A9
FFFE
004A
0007
000F
0023
002A
FFB2
FFCA
0012
0058
0014
FFDF
0023
0000
000C
0000
003A
FFCE
FF87
0000
0000
0023
FFF1
0063
FFCE
FFDB
FFDA
FFEC
0058
FFCE
0000
004C
0063
FF86
FF5D
FEF7
FFBE
FFAB
FFB4
FFBD
FFC4
0003
FF61
0016
FF9A
FFC6
FFF5
FFFA
00A5
00B7
00AD
0063
0063
FFCC
0030
0009
004C
0070
FFEA
004A
FFF3
FFD4
FFD7
004D
0017
FFF7
0074
001C
0070
FFF6
0008
0091
0041
FFBD
FF8A
FF68
FFE6
FF76
0051
0074
0016
00A8
0032
0098
FF91
FFCB
FF5F
FFD1
0080
000B
004B
00AB
00BA
0089
FFE8
FF5A
FF5F
FF7C
FFB2
002B
0085
007B
0034
0067
0008
0057
007F
0024
FFD0
FFDC
FFC7
FFA3
FF91
FFF1
FFFA
FFE9
FFEC
FF6B
0037
0010
FF59
FFB3
FFE0
0061
0014
FFDA
FFD4
000E
0035
FFDF
FFEC
FFD6
004D
FF94
FF9B
FF4F
FFD5
FF9E
0049
0038
FFE3
0044
FFB8
FFBF
FFCE
FF76
FF91
FFAB
004B
FFF2
FFAA
FF94
002A
