FFCF
FFBA
0050
0050
FFB1
004B
0036
0021
0037
FFD5
FFC4
001A
FFB5
0041
0051
FFC7
003A
FFD6
FFB4
003A
0038
FFA7
FFB6
FFB2
0011
003D
003A
0042
002C
0038
0048
FFD9
0040
FFBE
FFC7
0042
FFC8
0021
FFB1
001D
FFCF
000E
FFDE
FFD6
FFB7
0030
FFB4
0042
FFE1
0006
003C
FFC1
002E
0029
001E
004A
0014
0037
FFC2
FFBB
0047
FFB4
FFB1
FFD9
0002
0051
FFC1
FFB2
004B
FFCA
FFE1
FFD9
FFC4
0054
0032
FFBC
004C
FFD8
FFCF
002C
FFB4
0052
0016
FFB9
FFC2
0051
002A
004D
FFE0
FFCB
FFE1
FFBA
FFCB
FFCC
FFC2
004E
FFBF
0047
0031
FFCA
0045
FFB2
003E
FFB9
0044
FFBA
004C
0049
0041
FFCC
0055
FFC2
004E
FFC1
FFDF
002D
FFDA
FFD9
FFD3
FFB5
FFBA
FFEB
0031
0047
FFE9
0038
003F
004B
