0394
F9EF
0332
FFE4
FED4
FFD0
013C
00F7
FF01
FF99
00F9
00BF
FEF1
FFAB
00E8
FFF5
0046
FFDB
FF7A
FF8A
FFCB
FFE4
FF69
FF31
00F8
FF89
004E
00A8
FF2B
FF5E
000C
FFB5
FFA9
FFD2
FFDD
014B
FEE9
FDE5
0415
FEAA
006E
FF2F
FF7D
00AE
00F8
FF71
FF86
FFA0
FFF7
00B9
FF1E
0000
FF72
005B
003E
FF22
0104
001F
FFE0
FEE0
00F7
FFDC
004B
FF56
FF29
FFEE
FF90
FFB5
0079
FF4B
FF06
FFEC
004F
FE98
01AA
00D7
0245
F96E
026A
0124
