FE28
00AB
00AD
0147
0054
019B
0180
00DE
FF82
015A
0250
FEF9
00E2
0100
00B6
0148
FFB5
0115
008D
0003
014D
0166
FFDA
00F6
000C
01B6
008E
0167
004B
012A
019B
0171
0097
013C
017B
00F7
00C1
009F
0218
00AD
0176
0132
0113
0116
021E
0150
017D
017E
01A1
0094
00D0
01D7
00D4
0068
009A
0083
002C
FF64
00A5
010C
FFA0
0109
0121
0181
