FFFE
FFC5
FFF6
FFF9
002F
FFFD
001F
0011
0010
FFD6
0045
0033
0002
FFD5
FFDE
FFE9
000D
FFBF
FFED
FFE2
FFD4
0003
FFEF
0016
FFB1
0024
FFFE
FFF0
FFB7
FFBD
FFFE
0023
0005
0010
FFCC
FFCA
000E
0000
FFC8
FFE3
0013
FFC3
FFD5
0031
005A
FFC5
0028
0013
FFF8
FFEE
FFE0
FFCA
003F
0028
FFDF
001D
FFD9
0000
FFCD
FFB7
FFF0
FFC2
FFF5
0044
FFB8
002A
002F
0026
FFBF
0018
FFC0
FFFC
0032
FFF9
0040
001A
0019
003E
0002
0000
FFDB
0004
0004
0027
0035
FFD0
FFEB
FFF8
FFE0
FFF9
001D
000F
0037
0008
FFBE
0010
0023
FFE5
FFEF
FFD8
FFF6
001F
0031
FFDD
FFD6
001E
FFE3
FFDE
FFF4
FFDB
0010
FFE3
FFDD
FFBF
FFEE
0027
FFDA
FFEF
FFE8
FFB3
0018
FFFB
FFC9
002B
FFDD
0015
FFE3
FFFF
FFDE
FFF8
001C
FFF8
FFF5
0000
0013
002C
0004
FFCD
0003
FFDC
FFB7
000B
0013
FFF5
FFFC
001A
FFE8
FFEE
FFD7
FFCC
0024
0000
0009
0008
002F
FFFD
FFA4
002F
0010
FFEB
0022
001B
001B
FFE9
0004
FFF7
000F
FFC7
FFCA
000C
FFEF
FFE8
FFF0
FFCE
FFDA
001C
FFE9
0005
FFF1
FFFB
FFF3
0004
FFF9
000F
000A
FFEA
0019
FFE0
FFE7
FFF5
0008
0023
000F
FFEB
0022
0005
FFC9
FFE3
FFD4
0020
0007
FFDF
0007
FFDD
0009
001B
FFDE
0009
FFF5
0024
FFFC
001C
FFEF
000F
FFE5
FFF8
000B
0007
0017
000D
0000
0025
FFF5
0019
FFDC
FFE3
001B
FFE4
0004
FFF0
FFF2
FFF8
FFEF
0029
0000
0038
0014
000D
0020
000B
002A
0031
FFEB
0035
0020
0027
0018
FFE4
FFFC
FFD8
001B
000D
002D
000F
FFF8
0024
FFD4
001C
FFF4
FFE6
0008
0027
FFFA
0022
0028
FFCA
0004
0027
002E
FFCA
FFF3
FFFC
002D
FFF6
0000
0023
000E
FFE4
0018
FFE8
002D
000E
0020
FFFB
FFD2
FFEE
FFF8
FFD4
000F
FFE2
0002
FFE9
FFCF
FFF0
FFFA
FFDA
FFFA
0020
0026
0015
0039
002D
0008
001B
FFDF
FFC5
FFF0
FFD8
FFE0
FFFA
0018
002A
0024
000B
FFE1
FFFD
FFED
FFFD
FF98
FFA6
001A
0020
0017
0005
FFC6
FFE5
001F
002B
0024
FFC0
000A
FFD6
0003
0020
FFDE
FFE2
0022
FFF3
001A
001C
FFFC
FFD6
0016
FFDE
FFEF
FFF5
FFF4
FFEE
000A
FFFE
FFD1
FFF7
002A
0004
0019
0000
000D
FFF8
FFAE
FFEC
0024
0017
FFF9
FFB8
0000
FFD7
FFF4
FFF3
000B
000D
FFCC
FFFB
0000
0006
FFF9
FFD6
FFDC
0022
FFF1
FFD4
0021
0029
0005
0024
FFD6
FFBF
000D
0011
FFF1
FFD1
FFDE
FFEB
FFFF
0000
0020
FFF9
003B
0017
FFF4
0014
FFF8
0011
0010
FFE9
FFFC
0016
FFFD
0014
FFEA
FFCA
000C
FFE8
FFD5
0007
000F
FFE9
FFDC
FFF8
FFF2
FFFD
FFE4
FFF4
0017
FFD8
0019
0017
0008
FFEF
0001
FFF2
FFDC
FFDA
000F
000D
FFF8
0000
0011
FFCF
FFD5
FFE5
0000
FFEE
FFD4
0019
0004
FFC9
0000
0013
FFFD
FFEE
FFB0
FFDE
0000
000F
0029
001F
FFED
0011
001C
FFD4
FFFE
0014
0020
0011
FFDC
0004
FFE6
0008
000A
FFFE
FFB8
FFD7
000E
0003
0004
002E
0015
FFD4
0020
0009
0021
FFDE
0023
0028
0028
003D
FFF6
FFE9
0014
0007
002A
002C
FFCF
000E
FFE3
000B
FFBC
0016
001B
0025
0023
FFBD
FFB4
FFDF
0019
FFEC
FFFA
0000
0034
0031
FFF2
FFE8
FFED
0016
FFFD
0035
FFF6
FFF7
001D
002D
001A
FFFA
0022
000E
FFEC
FFFF
002A
FFCD
0000
FFEE
FFEE
FFF9
0003
FFBB
001B
FFDA
0008
0010
FFEC
FFE0
0005
FFF0
FFE5
001D
0004
FFF8
FFF9
0014
0000
FFFD
FFD2
0008
0000
0000
FFF2
001D
002A
0005
FFF4
FF95
000E
FFEE
001C
FFCD
001E
0025
FFE8
001A
FFF4
FFEE
FFF1
000F
0010
001E
0007
0015
FFF1
FFFC
002E
FFED
0010
FFFC
000C
0012
0026
000C
FFD3
002F
FFFF
0006
0019
FFF9
001B
FFFB
0031
002B
0003
FFFA
000F
FFD0
0008
FFF5
0002
0020
000A
000F
0017
FFE8
0023
000A
002E
001A
FFD9
0023
FFDF
001B
0001
0029
0026
000C
FFF2
FFD2
FFD6
FFEC
002D
0034
0013
FFFC
0019
002A
0029
001E
0015
000F
001E
FFD3
0014
FFE6
FFEE
FFD5
000F
FFF9
FFEB
0004
FFCE
FFFF
0024
0026
FFD2
FFC8
002C
FFE1
FFF2
0024
FFE8
FFFE
FFC6
FFE2
000D
FFFA
0011
FFFE
0021
000D
FFE3
0027
FFFE
0017
FFE5
FFC5
0036
002E
FFD1
000B
FFC4
0000
0012
001E
0015
0009
0033
FFE7
0014
FFF3
0000
FFC6
0001
FFE0
FF98
FFBA
FFF3
FFDC
FFF2
FFF0
0006
FFE4
FFEB
0008
FFE2
FFE7
0005
000B
0047
FFEC
FF86
001E
FFEA
0018
FFF8
FFD9
FFD6
0005
002F
FFCE
FFD3
0005
001B
FFF0
FFE5
0009
002A
0013
FFF0
0005
000B
FFFD
FFE6
FFDA
FFBE
FFC2
0042
0004
FFDA
0014
0019
FFF9
FFF3
FFDD
0013
FFF4
002A
0025
FFF9
FFC4
FFFF
000D
0004
FFE6
FFF2
FFF2
0012
FFE1
0000
FFEA
0023
FFF8
0005
FFDE
FFEA
001C
FFED
FFCF
FFC6
FFFC
FFF9
FFF6
FFDA
FFF2
FFE6
FFD9
FFE4
FFE1
FFFF
FFBF
FFEC
000E
001A
0003
FFDF
FFDE
001F
0020
FFE0
0019
FFEB
0031
FFEC
FFD9
0011
FFEA
FFF4
FFF5
001B
FFC6
FFFE
0008
0019
FFCE
FFF9
FFE8
FFEF
FFFF
0010
000F
FFFC
0005
0038
000D
FFEE
FFB5
002D
FFE5
FFF8
FFF3
FFDC
0000
0000
0014
FFEB
0012
002E
FFDB
FFDE
0013
FFC7
001D
FFDD
0023
FFDA
0000
FFE4
0020
002E
FFD7
FFD7
FFF2
FFD4
0001
FFEC
FFBE
0018
001E
FFC6
FFCA
FFF1
0019
FFF1
0003
FFCC
FFDA
FFF1
FFFE
0006
000A
FFEA
FFFB
0024
0006
FFD3
0005
FFEB
002A
0009
FFE3
FFE6
0006
0000
FFFB
0027
000B
FFFA
FFE4
FFF9
0005
FFF3
002D
003E
000D
0028
FFC7
FFEB
0034
0031
000D
FFEC
FFA6
0018
0008
FFF1
FFC3
FFFF
FFD6
FFEA
FFE4
FFED
FFE9
0041
FFD6
FFB0
FFF1
FFD4
001D
FFE0
FFF7
FFD1
001D
FFEF
FFEB
FFFD
FFFB
FFDC
001F
001D
0001
FFC0
0039
FFFC
FFF8
FFBF
0017
0007
0003
FFFE
FFE6
0013
FFD1
000C
0024
0039
0006
FFF4
0030
FFE5
0001
FFE1
0015
FFDF
0019
FFDA
FFDC
0010
FFFC
FFF7
0004
004D
FFFC
FFD8
FFFA
0012
FFEA
FFFB
0023
FF88
FFD1
FFC4
0023
FFD9
FF8B
FFDA
0016
FFFC
FFF0
0021
0027
0023
FFE5
FFE1
FFF8
0004
FFED
FFED
FFFE
0007
FFEB
FFF1
0008
FFF4
FFF3
0004
FFC6
FFD0
FFE2
0009
FFFF
FFF8
FFFD
FFDA
FFE8
FFE1
FFD3
FFD1
FFE6
FFFC
0007
0017
FFE6
0002
0003
000D
0004
000F
FFEB
0016
0000
FFFE
FFF6
FFF1
000A
FFF5
0006
FFDB
FFDB
FFE8
FFE0
FFF1
FFF1
FFF2
0000
FFE5
FFC1
001B
0000
FFFC
0006
FFFE
FFC6
FFDF
FFDF
0005
FFFF
FFFA
0007
0001
000C
0000
0010
0003
FFFE
FFFB
0017
FFEE
FFE4
0004
FFF0
FFEA
0000
FFF2
FFEC
FFD8
0009
FFC6
FFB7
FFF0
FFF8
0014
FFFC
001B
FFDE
001E
FFD7
FFFB
0002
FFF9
FFF0
FFFC
0009
0019
001D
FFFE
000A
001E
001C
0023
0005
0017
0014
FFE8
0012
FFCD
0009
001A
0005
FFDE
FFFA
000E
0033
0033
0004
FFFE
FFEC
002B
FFE7
FFE1
0029
0004
000A
001C
FFE6
FFF9
FFFB
0016
FFD3
FFC8
FFD5
FFEB
0007
FFD9
FFFA
FFF8
0009
001A
002B
0027
FFED
FFEF
000D
FFCB
0048
000F
0040
FFC6
FFCF
FFDC
FFD8
000C
FFE9
004A
FFF9
FFC7
FFED
FFA5
003C
000B
FFB6
FFC1
0037
FFFC
0007
FFC7
0013
0049
0014
000D
FFDF
FFDE
000A
0027
0017
0026
FFF3
FFB3
FFC8
0012
0030
0022
0015
FFD5
0040
FFCA
FFFA
0048
FFDF
0004
FFFB
FFF4
002D
FFF6
FFCB
FFCF
0000
0035
002E
FFDC
0031
FFFB
FFFC
FFEA
002E
FFD1
FFA4
0007
FFE6
0021
FFEB
FF97
0023
0014
002B
FFFF
FFD5
004B
0019
001E
FFD8
0007
003B
003C
0071
0069
008E
0020
0042
FFFC
0016
FFC5
FFE5
0025
FFC6
FFEA
0003
FFEE
FFE7
0005
FFD5
FFE2
0002
FFE9
FFDF
FFD2
FFFA
FFFE
0000
000A
FFD4
FFDC
FFD3
0007
FFFB
FFE9
FFF8
000E
000C
FFFB
FFE7
FFFC
FFC7
0004
0009
0004
000C
FFEB
FFD7
0029
0014
FFF3
000C
FFF7
0025
002F
0016
0011
FFEE
001F
FFFD
001E
FFF2
0016
0003
FFED
FFD1
0005
0028
FFDB
FFD1
000A
FFF9
0018
FFDF
0005
FFCD
FFE3
FFF6
001B
0005
0025
FFCF
001A
FFFE
0013
FFF5
0018
0020
0028
FFED
FFF7
000D
0010
FFD1
FFD2
FFD8
FFFD
0022
FFDD
0002
FFF5
0012
FFDF
0009
FFF3
FFCC
FFDF
0016
FFD2
FFDB
FFD2
FFF5
0002
FFEB
FFE1
0016
FFEE
FFD9
FFF6
FFF6
0010
000E
000F
FFFA
FFF6
001C
0011
FFD8
FFDD
FFE9
0012
FFF6
FFF2
FFE2
FFB2
FFD1
000F
0012
FFD4
0006
FFD2
000B
0008
0000
FFE4
FFE1
0023
0018
0025
0000
0012
0000
FFED
0002
FFE6
FFD2
FFF8
001C
FFE9
FFF8
FFE5
000C
0015
0007
FFD5
FFD2
FFEA
FF9A
FFBB
FFFC
FFD1
FFEE
FFC2
0039
FFC9
0010
FFE8
0040
FFBC
000D
FF9B
FFF7
FFC9
0032
FFA7
FFE9
FFAA
0023
FFDD
000C
0032
0004
0003
FFD8
FFE0
001E
0050
003D
0012
FFC4
001C
FFCE
0050
0004
0025
0024
000B
0048
FFA5
FFDF
0004
0023
FFF6
0064
FFD0
0015
FFDA
FFB4
FFF5
FFA8
FFD7
003E
003E
FFD5
FFBB
FFF5
004B
FFD1
FFFE
FFE0
0010
0026
FFC5
FFEF
FFE6
0016
FFE3
0033
FFF1
0059
FFCE
FFE1
004E
FFB0
001E
FFC8
FFD4
0001
FFCC
0007
0006
FFDA
FFDF
FFFE
FFE9
001B
FFC8
FFE5
FFF0
FFD9
0004
FFEA
FFE9
FFE5
FFE0
0015
FFFA
0016
FFF1
FFFF
FFE7
0000
001A
FFDA
FFE0
FFF3
0013
000B
FFF3
0007
0000
FFD2
0013
000D
0001
000D
FFEF
FFDD
FFE7
FFDA
FFF6
000E
0019
FFE5
000F
0012
FFFE
0026
0009
FFFF
000E
000A
0014
FFDC
FFD9
FFE8
FFE9
FFE0
FFD8
FFE8
0017
001A
FFFB
0014
FFEC
FFFB
0007
0005
FFFB
0017
FFE6
FFD2
FFF2
000E
0004
FFDD
FFF2
0016
FFE3
FFE7
FFD9
FFF5
FFD5
002C
000F
FFC0
FFCF
FFBE
0004
FFE4
0021
FFD8
0008
FFFB
FFFA
FFD7
FFDF
0022
001C
FFE0
FFD0
0015
0014
FFEB
001C
0010
0014
0022
001D
0023
FFE2
FFDC
FFF5
000C
FFBD
0006
FFFA
FFF3
0003
FFB9
001B
FFD3
0013
FFFF
0011
0006
000D
FFF4
002B
FFDD
0000
FFF0
001A
FFFE
0021
FFFC
000B
FFF9
FFD8
FFE9
FFC2
FFDC
FFD2
FFE3
000A
FFC7
000D
0024
0005
FFDA
0007
FFE5
FFD0
0007
0047
0034
FFC6
FFFF
FFCD
0014
0032
FFFD
FFEB
0009
FFEC
FFE1
FF9B
FFB9
FFF9
000D
FFD5
FFCE
FFE0
FFD4
0015
000D
FFE1
0019
FFED
FFEE
FFE1
FFF2
FFCB
FFF5
FFF4
0018
002B
FFFC
FFDD
FFF0
FFFF
FFF7
FFFD
0024
FFDC
001B
FFDF
0020
FFF9
FFFF
FFE9
0012
0024
0006
0005
0008
0053
000B
FFF9
FFDE
000E
FFF1
FFEE
FFC2
FFF9
FFE5
0017
002D
FFEB
0009
FFF1
000E
FFEE
FFE6
FFD9
FFE2
003F
002E
0022
FFFB
FFCA
FFE0
FFD6
FFF4
FFC3
FFB4
FFE9
FFE7
0008
FFE0
FFEB
0016
001C
FFCA
FFEC
FFD8
FFDF
FFDC
FFF8
FFD0
0005
FFD0
FFE3
FFF1
FFF5
FFD8
FFE4
FFDF
FFFC
FFC9
0022
FFDB
001A
0024
002D
001F
002F
FFF3
000A
0011
FFF2
0023
FFD1
0006
0010
001C
FFF6
0024
0010
FFD1
0002
0056
0011
FFFA
FFD2
FFF5
0007
FFF5
0014
FFBE
0016
FFC6
002B
0020
0035
0039
FFC0
FFDF
FFEE
004C
002D
0013
FFCA
FFC7
0019
0039
0048
0008
FFCF
FFC2
0005
FFF2
FFC0
FFBC
FF84
FFCB
001A
0028
001B
FFD8
0013
0024
FFC7
FFFD
001B
0026
004E
0000
FFF7
FFCF
FFD4
001B
FFCD
FFE8
0013
FFF3
0013
FFEB
0024
0046
0029
FFFB
0029
0041
001C
000D
0026
FFC2
FFF9
FFDD
0018
0023
0030
FFBE
FFFF
FFE4
0014
001A
FFE2
000F
FFE1
0020
FFFB
001C
FFEA
FFFB
FFE5
FFC7
0010
FFEF
0035
FFD1
FFF4
0020
000A
FFF1
0009
FFDB
000E
FFA6
0055
0025
0016
0006
002F
FFF9
FFFD
0057
FFFA
0039
FFF3
0022
0004
FFA7
FF92
FFC0
FFF8
FFAF
FFCE
0001
0015
FFBA
FFD6
FFE4
0001
0026
FF9A
000B
FFF5
FFFE
FFAA
0045
FFCF
001A
0006
0042
002C
0000
004B
FFFB
FFDD
0019
003E
004B
0010
FFF9
FFEB
FFDB
FFF5
FFE9
0048
0011
0051
002F
001C
FF9A
000A
FFFF
0034
FFEF
FF88
002E
FFB3
0002
004F
0013
0018
FFB5
FFF2
FFE3
FFC2
FFC1
0039
FFE1
0048
0030
0042
0028
0001
FFD3
0071
FFB0
001D
FFBA
0013
000C
0007
FFDE
FFC3
FFE5
0025
FF94
FFC7
002C
004E
FFFD
FFD2
000B
0000
FFD8
FFEF
0009
0025
0002
FFF5
FFE5
FF8B
FFF0
0021
0014
FFBD
FFEC
FFF4
0014
FFD9
FFFB
FFD4
0010
FFD4
0016
0011
0034
FFE4
FFDD
0017
FFF6
000F
FFE7
FFFD
001C
FFE9
000F
FFF9
FFE9
FFD3
FFE6
FFD6
0009
FFF3
0002
FFBD
0012
0039
005F
002E
0016
002E
002C
001C
0029
0035
0015
FFF6
FFF4
FFC1
0031
002E
004D
003A
000F
0058
FFCD
0028
FFFF
FFF9
FFC0
0019
0061
0017
000E
FFD6
003B
001A
FFF5
FFCD
FFFE
FFE3
0000
FFE7
FFE4
FFE1
FFB3
0007
000F
000B
0003
FFB5
FFCC
FFE0
FFF3
FFF5
0010
FFFE
FFFA
001A
FFE9
0010
FFED
000C
0003
000B
FFED
0006
000B
FFFD
FFF3
0015
0009
FFEC
FFF5
0019
FFF9
FFE9
0012
FFCF
FFE2
0000
0005
FFDB
FFB0
FFEC
000E
FFF7
FFEF
FFF2
FFE8
FFFA
0014
0004
000F
001B
000A
FFF3
0008
0008
0005
FFF7
0019
FFFA
0015
FFF0
FFFD
0008
000B
0000
0018
0013
001D
0008
FFFA
FFE7
FFC9
0009
FFF6
0015
FFFF
0025
FFDB
FFF4
0029
FFFA
FFD1
FFBC
0000
FFE9
000F
FFB0
FFDE
0009
FFDD
001C
FFE4
FFF6
0024
0034
FFD1
FFC8
FFC6
0020
FFDF
0028
FFDC
002F
0038
001A
002B
0013
000C
FFFF
FFEE
0015
0015
000C
FFE2
001A
FFA8
FFD5
0007
FFF3
FFDD
FFCB
0023
0009
0007
FFC7
FFF5
FFD1
FFFE
000F
FFE1
0044
000F
FFF0
0016
FFD2
000C
FFF4
0019
0034
0032
0025
FFBF
FFD1
0017
0003
0017
FFF0
0051
FFF2
FFCF
0038
0019
0020
FFEE
001E
0005
0052
0007
FFE4
FFF9
FFE3
000D
003E
FFFE
0001
FFE0
0028
0005
0033
001F
FFE9
001C
FFD6
FFC0
FFFF
0029
FFE8
FFDB
FFEB
FFF1
FFFD
001C
0012
0003
0027
0033
0005
FFDF
001D
0019
FFF2
FFF7
0009
FFF8
FFEC
FFBD
FFE2
FFC6
FFE2
FFCB
0002
000D
0025
0022
0004
001D
FFED
0016
FFE6
000E
FFCB
FFF8
FFF7
FFDC
FFF7
0007
0027
0011
FFFD
FFE6
0000
0026
FFEE
0008
FFED
002B
001E
002E
FFCC
FFF3
0015
FFCC
FFF2
FFD3
FF97
0000
FFF9
FFE7
FFD1
0027
0009
FFB6
FFBF
001A
001B
0018
0007
0005
0003
FFEC
FFD4
FFF5
0009
0010
002D
FFDD
FFD3
FFBE
0025
001D
FFD5
0019
001E
0013
0011
001D
000E
FFE2
FFF0
0032
FFFD
0011
FFE6
0030
0013
FFDD
FFE4
FFF1
FFF7
FFD0
FFD1
FFE2
FFC5
FFB7
FFE4
FFDA
FFAE
0004
0011
FFF1
0018
FFF5
000E
0033
0018
FFDC
0011
FFCC
FFEC
FFF5
FFE0
FFC6
0014
FFEE
0024
0027
FFC9
FFD1
FFA6
0011
FFB0
0008
000C
0025
0014
FFA7
0010
FFFB
FFDE
FFFF
FFD5
001B
0013
0006
0008
FFF1
0011
0028
0025
000D
0026
FFF7
0004
000B
FFFA
FFE5
FFE5
FFF7
000A
0020
FFEF
0019
FFD9
FFFE
FFDA
FFF5
0010
0013
000F
000E
FFEA
0005
FFF2
0014
0031
FFF2
0003
FFFD
000D
0007
0020
0000
0000
FFEB
0004
0022
FFD0
FFD9
FFD1
0000
FFF0
FFFB
FFD2
002A
0011
FFFF
001E
FFF3
FFDE
0015
FFE7
FFE1
0004
001B
0001
FFF2
FFF6
FFE8
FFFD
0018
0016
0027
0023
0011
0035
002C
0010
FFEF
000D
FFF3
002B
FFD7
000A
0006
FFF8
FFEC
FFDD
FFED
FFFF
FFF1
000E
FFE9
0000
000F
FFE7
FFF2
0018
FFF5
0029
000B
0021
0026
000A
0000
0013
0000
001C
001F
FFFC
000D
FFFD
000B
001D
0000
FFDE
0006
0010
FFFA
000F
FFD9
FFE1
0022
FFF9
FFFB
FFEC
FFF2
0034
0022
001C
0010
002E
000E
001A
FFFD
001A
FFED
FFF2
000A
0016
0028
0025
0024
0011
FFED
001F
0002
FFF9
FFEA
0005
0009
000E
0013
001C
000C
000F
0019
0000
FFF4
0001
000A
000A
FFEE
FFF6
0009
000E
FFF0
0002
FFCF
FFE7
FFBD
FFD9
0010
0012
FFE5
FFF5
FFEB
FFE7
0006
000D
0008
0001
0018
FFFD
FFF6
FFF5
000C
0001
FFE6
FFFE
FFE7
0006
0010
FFE2
0000
FFDD
FFDA
FFEC
FFFF
FFF2
FFDA
FFB3
0011
000B
FFFC
FFF7
FFF2
000F
001A
FFE5
FFF5
FFEB
0004
FFFA
FFF4
000F
0008
0008
FFEA
FFDE
000C
000A
FFF3
0012
0015
000A
FFF5
FFF7
001D
FFE8
001E
FFE3
0030
FFF4
FFE3
0000
FFDB
